{
  "version": "1.0",
  "truncation": null,
  "padding": null,
  "added_tokens": [
    {
      "id": 0,
      "content": "<unk>",
      "single_word": false,
      "lstrip": false,
      "rstrip": false,
      "normalized": false,
      "special": true
    },
    {
      "id": 1,
      "content": "<pad>",
      "single_word": false,
      "lstrip": false,
      "rstrip": false,
      "normalized": false,
      "special": true
    },
    {
      "id": 2,
      "content": "<sos>",
      "single_word": false,
      "lstrip": false,
      "rstrip": false,
      "normalized": false,
      "special": true
    }
  ],
  "normalizer": null,
  "pre_tokenizer": {
    "type": "Whitespace"
  },
  "post_processor": null,
  "decoder": null,
  "model": {
    "type": "BPE",
    "dropout": null,
    "unk_token": "<unk>",
    "continuing_subword_prefix": "##",
    "end_of_word_suffix": null,
    "fuse_unk": false,
    "byte_fallback": false,
    "ignore_merges": false,
    "vocab": {
      "<unk>": 0,
      "<pad>": 1,
      "<sos>": 2,
      "!": 3,
      "%": 4,
      "'": 5,
      ",": 6,
      "-": 7,
      ".": 8,
      "0": 9,
      "1": 10,
      "2": 11,
      "3": 12,
      "4": 13,
      "5": 14,
      "6": 15,
      "7": 16,
      "8": 17,
      "9": 18,
      ";": 19,
      "?": 20,
      "A": 21,
      "B": 22,
      "C": 23,
      "D": 24,
      "L": 25,
      "N": 26,
      "O": 27,
      "P": 28,
      "S": 29,
      "X": 30,
      "_": 31,
      "a": 32,
      "c": 33,
      "g": 34,
      "j": 35,
      "k": 36,
      "n": 37,
      "o": 38,
      "s": 39,
      "~": 40,
      "…": 41,
      "ㅊ": 42,
      "ㅋ": 43,
      "ㅎ": 44,
      "ㅜ": 45,
      "ㅠ": 46,
      "가": 47,
      "각": 48,
      "간": 49,
      "갇": 50,
      "갈": 51,
      "감": 52,
      "갑": 53,
      "값": 54,
      "갔": 55,
      "강": 56,
      "갖": 57,
      "같": 58,
      "갚": 59,
      "개": 60,
      "객": 61,
      "갠": 62,
      "갯": 63,
      "갱": 64,
      "걍": 65,
      "걔": 66,
      "거": 67,
      "걱": 68,
      "건": 69,
      "걷": 70,
      "걸": 71,
      "검": 72,
      "겁": 73,
      "것": 74,
      "겉": 75,
      "게": 76,
      "겐": 77,
      "겜": 78,
      "겟": 79,
      "겠": 80,
      "겨": 81,
      "격": 82,
      "겪": 83,
      "견": 84,
      "결": 85,
      "겹": 86,
      "겼": 87,
      "경": 88,
      "곁": 89,
      "계": 90,
      "곗": 91,
      "고": 92,
      "곡": 93,
      "곤": 94,
      "곧": 95,
      "골": 96,
      "곰": 97,
      "곱": 98,
      "곳": 99,
      "공": 100,
      "과": 101,
      "관": 102,
      "광": 103,
      "괘": 104,
      "괜": 105,
      "괴": 106,
      "교": 107,
      "구": 108,
      "국": 109,
      "군": 110,
      "굳": 111,
      "굴": 112,
      "굶": 113,
      "굽": 114,
      "굿": 115,
      "궁": 116,
      "궈": 117,
      "권": 118,
      "궜": 119,
      "귀": 120,
      "귄": 121,
      "귈": 122,
      "귐": 123,
      "규": 124,
      "균": 125,
      "귤": 126,
      "그": 127,
      "극": 128,
      "근": 129,
      "글": 130,
      "긁": 131,
      "금": 132,
      "급": 133,
      "긋": 134,
      "긍": 135,
      "기": 136,
      "긴": 137,
      "길": 138,
      "김": 139,
      "깃": 140,
      "깅": 141,
      "깊": 142,
      "까": 143,
      "깍": 144,
      "깎": 145,
      "깐": 146,
      "깔": 147,
      "깜": 148,
      "깝": 149,
      "깠": 150,
      "깡": 151,
      "깨": 152,
      "깬": 153,
      "깰": 154,
      "깼": 155,
      "꺼": 156,
      "꺽": 157,
      "껀": 158,
      "껄": 159,
      "껏": 160,
      "께": 161,
      "껴": 162,
      "꼈": 163,
      "꼬": 164,
      "꼭": 165,
      "꼰": 166,
      "꼴": 167,
      "꼼": 168,
      "꼿": 169,
      "꽁": 170,
      "꽂": 171,
      "꽃": 172,
      "꽈": 173,
      "꽉": 174,
      "꽝": 175,
      "꽤": 176,
      "꾸": 177,
      "꾹": 178,
      "꾼": 179,
      "꿀": 180,
      "꿈": 181,
      "꿎": 182,
      "꿔": 183,
      "꿧": 184,
      "꿨": 185,
      "꿩": 186,
      "꿰": 187,
      "뀌": 188,
      "뀐": 189,
      "뀔": 190,
      "끄": 191,
      "끈": 192,
      "끊": 193,
      "끌": 194,
      "끓": 195,
      "끔": 196,
      "끗": 197,
      "끝": 198,
      "끼": 199,
      "낀": 200,
      "낄": 201,
      "낌": 202,
      "나": 203,
      "낙": 204,
      "낚": 205,
      "난": 206,
      "날": 207,
      "남": 208,
      "납": 209,
      "낫": 210,
      "났": 211,
      "낭": 212,
      "낮": 213,
      "낳": 214,
      "내": 215,
      "낸": 216,
      "낼": 217,
      "냄": 218,
      "냅": 219,
      "냈": 220,
      "냉": 221,
      "냐": 222,
      "냥": 223,
      "너": 224,
      "넋": 225,
      "넌": 226,
      "널": 227,
      "넓": 228,
      "넘": 229,
      "넛": 230,
      "넣": 231,
      "네": 232,
      "넥": 233,
      "넷": 234,
      "넹": 235,
      "녀": 236,
      "녁": 237,
      "년": 238,
      "념": 239,
      "녔": 240,
      "녕": 241,
      "노": 242,
      "녹": 243,
      "논": 244,
      "놀": 245,
      "놈": 246,
      "놉": 247,
      "농": 248,
      "높": 249,
      "놓": 250,
      "놔": 251,
      "놨": 252,
      "뇌": 253,
      "뇨": 254,
      "뇽": 255,
      "누": 256,
      "눅": 257,
      "눈": 258,
      "눌": 259,
      "눕": 260,
      "눠": 261,
      "눴": 262,
      "뉴": 263,
      "느": 264,
      "는": 265,
      "늘": 266,
      "늙": 267,
      "늠": 268,
      "능": 269,
      "늦": 270,
      "늪": 271,
      "니": 272,
      "닉": 273,
      "닌": 274,
      "닐": 275,
      "님": 276,
      "닙": 277,
      "닝": 278,
      "다": 279,
      "닥": 280,
      "닦": 281,
      "단": 282,
      "닫": 283,
      "달": 284,
      "닭": 285,
      "닮": 286,
      "닳": 287,
      "담": 288,
      "답": 289,
      "닷": 290,
      "당": 291,
      "닿": 292,
      "대": 293,
      "댄": 294,
      "댈": 295,
      "댓": 296,
      "댔": 297,
      "댜": 298,
      "더": 299,
      "덕": 300,
      "던": 301,
      "덜": 302,
      "덤": 303,
      "덥": 304,
      "덧": 305,
      "덩": 306,
      "덮": 307,
      "데": 308,
      "덴": 309,
      "델": 310,
      "뎌": 311,
      "뎠": 312,
      "도": 313,
      "독": 314,
      "돈": 315,
      "돋": 316,
      "돌": 317,
      "돕": 318,
      "동": 319,
      "돼": 320,
      "됐": 321,
      "되": 322,
      "된": 323,
      "될": 324,
      "됨": 325,
      "됩": 326,
      "됬": 327,
      "두": 328,
      "둑": 329,
      "둔": 330,
      "둘": 331,
      "둠": 332,
      "둥": 333,
      "둬": 334,
      "뒀": 335,
      "뒤": 336,
      "뒷": 337,
      "뒹": 338,
      "듀": 339,
      "드": 340,
      "득": 341,
      "든": 342,
      "듣": 343,
      "들": 344,
      "듦": 345,
      "듬": 346,
      "듭": 347,
      "듯": 348,
      "등": 349,
      "디": 350,
      "딘": 351,
      "딛": 352,
      "딜": 353,
      "딧": 354,
      "딨": 355,
      "딩": 356,
      "딪": 357,
      "따": 358,
      "딱": 359,
      "딴": 360,
      "딸": 361,
      "땀": 362,
      "땅": 363,
      "때": 364,
      "땐": 365,
      "땜": 366,
      "땠": 367,
      "땡": 368,
      "떄": 369,
      "떠": 370,
      "떡": 371,
      "떤": 372,
      "떨": 373,
      "떴": 374,
      "떻": 375,
      "떼": 376,
      "뗄": 377,
      "또": 378,
      "똑": 379,
      "똥": 380,
      "뚝": 381,
      "뚫": 382,
      "뚱": 383,
      "뛰": 384,
      "뛴": 385,
      "뜁": 386,
      "뜨": 387,
      "뜩": 388,
      "뜬": 389,
      "뜰": 390,
      "뜸": 391,
      "뜻": 392,
      "띄": 393,
      "띠": 394,
      "띰": 395,
      "띵": 396,
      "라": 397,
      "락": 398,
      "란": 399,
      "랄": 400,
      "람": 401,
      "랍": 402,
      "랐": 403,
      "랑": 404,
      "랖": 405,
      "래": 406,
      "랙": 407,
      "랜": 408,
      "랠": 409,
      "램": 410,
      "랩": 411,
      "랫": 412,
      "랬": 413,
      "랭": 414,
      "량": 415,
      "러": 416,
      "런": 417,
      "럴": 418,
      "럼": 419,
      "럽": 420,
      "럿": 421,
      "렀": 422,
      "렁": 423,
      "렇": 424,
      "레": 425,
      "렉": 426,
      "렌": 427,
      "렐": 428,
      "렘": 429,
      "렛": 430,
      "렜": 431,
      "려": 432,
      "력": 433,
      "련": 434,
      "렬": 435,
      "렴": 436,
      "렵": 437,
      "렷": 438,
      "렸": 439,
      "령": 440,
      "례": 441,
      "로": 442,
      "록": 443,
      "론": 444,
      "롤": 445,
      "롭": 446,
      "롯": 447,
      "롱": 448,
      "뢰": 449,
      "료": 450,
      "루": 451,
      "룩": 452,
      "룰": 453,
      "룸": 454,
      "룽": 455,
      "뤄": 456,
      "류": 457,
      "륜": 458,
      "률": 459,
      "르": 460,
      "륵": 461,
      "른": 462,
      "를": 463,
      "름": 464,
      "릅": 465,
      "릇": 466,
      "릎": 467,
      "리": 468,
      "릭": 469,
      "린": 470,
      "릴": 471,
      "림": 472,
      "립": 473,
      "릿": 474,
      "링": 475,
      "마": 476,
      "막": 477,
      "만": 478,
      "많": 479,
      "말": 480,
      "맘": 481,
      "맙": 482,
      "맛": 483,
      "망": 484,
      "맞": 485,
      "맡": 486,
      "매": 487,
      "맥": 488,
      "맨": 489,
      "맴": 490,
      "맷": 491,
      "맹": 492,
      "맺": 493,
      "머": 494,
      "먹": 495,
      "먼": 496,
      "멀": 497,
      "멈": 498,
      "멋": 499,
      "멍": 500,
      "메": 501,
      "멘": 502,
      "멤": 503,
      "며": 504,
      "면": 505,
      "명": 506,
      "몇": 507,
      "모": 508,
      "목": 509,
      "몫": 510,
      "몬": 511,
      "몰": 512,
      "몸": 513,
      "몹": 514,
      "못": 515,
      "몽": 516,
      "묘": 517,
      "무": 518,
      "묵": 519,
      "문": 520,
      "묻": 521,
      "물": 522,
      "뭇": 523,
      "뭉": 524,
      "뭐": 525,
      "뭔": 526,
      "뭘": 527,
      "뭣": 528,
      "뮤": 529,
      "미": 530,
      "민": 531,
      "믿": 532,
      "밀": 533,
      "밉": 534,
      "밌": 535,
      "밍": 536,
      "밑": 537,
      "바": 538,
      "박": 539,
      "밖": 540,
      "반": 541,
      "받": 542,
      "발": 543,
      "밝": 544,
      "밟": 545,
      "밤": 546,
      "밥": 547,
      "방": 548,
      "밭": 549,
      "배": 550,
      "백": 551,
      "밸": 552,
      "뱃": 553,
      "뱄": 554,
      "뱉": 555,
      "버": 556,
      "벅": 557,
      "번": 558,
      "벋": 559,
      "벌": 560,
      "범": 561,
      "법": 562,
      "벗": 563,
      "벚": 564,
      "베": 565,
      "벤": 566,
      "벨": 567,
      "벴": 568,
      "벼": 569,
      "벽": 570,
      "변": 571,
      "별": 572,
      "볍": 573,
      "병": 574,
      "볕": 575,
      "보": 576,
      "복": 577,
      "볶": 578,
      "본": 579,
      "볼": 580,
      "봄": 581,
      "봅": 582,
      "봇": 583,
      "봉": 584,
      "봐": 585,
      "봤": 586,
      "뵈": 587,
      "부": 588,
      "북": 589,
      "분": 590,
      "불": 591,
      "붓": 592,
      "붕": 593,
      "붙": 594,
      "뷔": 595,
      "브": 596,
      "블": 597,
      "비": 598,
      "빈": 599,
      "빌": 600,
      "빔": 601,
      "빗": 602,
      "빙": 603,
      "빚": 604,
      "빛": 605,
      "빠": 606,
      "빡": 607,
      "빨": 608,
      "빴": 609,
      "빵": 610,
      "빼": 611,
      "빽": 612,
      "뺄": 613,
      "뺏": 614,
      "뺴": 615,
      "뻐": 616,
      "뻑": 617,
      "뻔": 618,
      "뻘": 619,
      "뻣": 620,
      "뻤": 621,
      "뻥": 622,
      "뽀": 623,
      "뽑": 624,
      "뽕": 625,
      "뿅": 626,
      "뿌": 627,
      "뿍": 628,
      "뿐": 629,
      "쁘": 630,
      "쁜": 631,
      "쁠": 632,
      "쁨": 633,
      "삐": 634,
      "삔": 635,
      "사": 636,
      "삭": 637,
      "산": 638,
      "살": 639,
      "삶": 640,
      "삼": 641,
      "삽": 642,
      "삿": 643,
      "샀": 644,
      "상": 645,
      "새": 646,
      "색": 647,
      "샌": 648,
      "샐": 649,
      "샘": 650,
      "샜": 651,
      "생": 652,
      "샤": 653,
      "서": 654,
      "석": 655,
      "섞": 656,
      "선": 657,
      "섣": 658,
      "설": 659,
      "섬": 660,
      "섭": 661,
      "섯": 662,
      "섰": 663,
      "성": 664,
      "세": 665,
      "섹": 666,
      "센": 667,
      "셀": 668,
      "셔": 669,
      "션": 670,
      "셥": 671,
      "셨": 672,
      "소": 673,
      "속": 674,
      "손": 675,
      "솔": 676,
      "솜": 677,
      "송": 678,
      "쇠": 679,
      "쇼": 680,
      "숍": 681,
      "숏": 682,
      "수": 683,
      "숙": 684,
      "순": 685,
      "술": 686,
      "숨": 687,
      "숫": 688,
      "숭": 689,
      "쉬": 690,
      "쉴": 691,
      "쉼": 692,
      "쉽": 693,
      "슈": 694,
      "스": 695,
      "슨": 696,
      "슬": 697,
      "슴": 698,
      "습": 699,
      "슷": 700,
      "승": 701,
      "시": 702,
      "식": 703,
      "신": 704,
      "실": 705,
      "싫": 706,
      "심": 707,
      "십": 708,
      "싱": 709,
      "싶": 710,
      "싸": 711,
      "싹": 712,
      "싼": 713,
      "쌀": 714,
      "쌈": 715,
      "쌍": 716,
      "쌓": 717,
      "쌤": 718,
      "쌩": 719,
      "써": 720,
      "썩": 721,
      "썰": 722,
      "썸": 723,
      "썹": 724,
      "썼": 725,
      "쎄": 726,
      "쎈": 727,
      "쎌": 728,
      "쏘": 729,
      "쏜": 730,
      "쏟": 731,
      "쏠": 732,
      "쐬": 733,
      "쑤": 734,
      "쑥": 735,
      "쓰": 736,
      "쓴": 737,
      "쓸": 738,
      "씀": 739,
      "씁": 740,
      "씌": 741,
      "씨": 742,
      "씩": 743,
      "씬": 744,
      "씰": 745,
      "씸": 746,
      "씹": 747,
      "씻": 748,
      "씽": 749,
      "아": 750,
      "악": 751,
      "안": 752,
      "앉": 753,
      "않": 754,
      "알": 755,
      "압": 756,
      "앗": 757,
      "았": 758,
      "앙": 759,
      "앞": 760,
      "애": 761,
      "액": 762,
      "앨": 763,
      "앱": 764,
      "야": 765,
      "약": 766,
      "얄": 767,
      "얇": 768,
      "양": 769,
      "얘": 770,
      "어": 771,
      "억": 772,
      "언": 773,
      "얻": 774,
      "얼": 775,
      "얽": 776,
      "엄": 777,
      "업": 778,
      "없": 779,
      "엇": 780,
      "었": 781,
      "엉": 782,
      "엊": 783,
      "에": 784,
      "엔": 785,
      "엘": 786,
      "엠": 787,
      "엣": 788,
      "여": 789,
      "역": 790,
      "엮": 791,
      "연": 792,
      "열": 793,
      "염": 794,
      "엽": 795,
      "엿": 796,
      "였": 797,
      "영": 798,
      "옆": 799,
      "옇": 800,
      "예": 801,
      "옛": 802,
      "오": 803,
      "옥": 804,
      "온": 805,
      "올": 806,
      "옮": 807,
      "옳": 808,
      "옴": 809,
      "옵": 810,
      "옷": 811,
      "와": 812,
      "완": 813,
      "왓": 814,
      "왔": 815,
      "왕": 816,
      "왜": 817,
      "왠": 818,
      "왤": 819,
      "외": 820,
      "왼": 821,
      "욌": 822,
      "요": 823,
      "욕": 824,
      "욜": 825,
      "용": 826,
      "우": 827,
      "욱": 828,
      "운": 829,
      "울": 830,
      "움": 831,
      "웁": 832,
      "웃": 833,
      "워": 834,
      "원": 835,
      "월": 836,
      "웠": 837,
      "웨": 838,
      "웬": 839,
      "웹": 840,
      "웽": 841,
      "위": 842,
      "윗": 843,
      "윙": 844,
      "유": 845,
      "육": 846,
      "윤": 847,
      "율": 848,
      "으": 849,
      "은": 850,
      "을": 851,
      "음": 852,
      "응": 853,
      "의": 854,
      "이": 855,
      "익": 856,
      "인": 857,
      "일": 858,
      "읽": 859,
      "잃": 860,
      "임": 861,
      "입": 862,
      "잇": 863,
      "있": 864,
      "잊": 865,
      "잌": 866,
      "자": 867,
      "작": 868,
      "잔": 869,
      "잖": 870,
      "잘": 871,
      "잠": 872,
      "잡": 873,
      "잤": 874,
      "장": 875,
      "잦": 876,
      "재": 877,
      "잼": 878,
      "잿": 879,
      "쟁": 880,
      "저": 881,
      "적": 882,
      "전": 883,
      "절": 884,
      "젊": 885,
      "점": 886,
      "접": 887,
      "젔": 888,
      "정": 889,
      "젖": 890,
      "제": 891,
      "젝": 892,
      "젠": 893,
      "젤": 894,
      "젯": 895,
      "져": 896,
      "젹": 897,
      "졋": 898,
      "졌": 899,
      "조": 900,
      "족": 901,
      "존": 902,
      "졸": 903,
      "좀": 904,
      "좁": 905,
      "종": 906,
      "좋": 907,
      "좌": 908,
      "죄": 909,
      "죠": 910,
      "주": 911,
      "죽": 912,
      "준": 913,
      "줄": 914,
      "줌": 915,
      "줍": 916,
      "중": 917,
      "줘": 918,
      "줬": 919,
      "쥐": 920,
      "쥬": 921,
      "즈": 922,
      "즉": 923,
      "즐": 924,
      "즘": 925,
      "즙": 926,
      "증": 927,
      "지": 928,
      "직": 929,
      "진": 930,
      "질": 931,
      "짐": 932,
      "집": 933,
      "짓": 934,
      "징": 935,
      "짚": 936,
      "짜": 937,
      "짝": 938,
      "짠": 939,
      "짤": 940,
      "짧": 941,
      "짬": 942,
      "짰": 943,
      "짱": 944,
      "째": 945,
      "짼": 946,
      "쨌": 947,
      "쩌": 948,
      "쩍": 949,
      "쩐": 950,
      "쩔": 951,
      "쩝": 952,
      "쩡": 953,
      "쪄": 954,
      "쪘": 955,
      "쪼": 956,
      "쪽": 957,
      "쫄": 958,
      "쫌": 959,
      "쫙": 960,
      "쭈": 961,
      "쭉": 962,
      "쭤": 963,
      "쯤": 964,
      "찌": 965,
      "찍": 966,
      "찐": 967,
      "찔": 968,
      "찜": 969,
      "찝": 970,
      "찡": 971,
      "찢": 972,
      "차": 973,
      "착": 974,
      "찬": 975,
      "찮": 976,
      "찰": 977,
      "참": 978,
      "찹": 979,
      "찼": 980,
      "창": 981,
      "찾": 982,
      "채": 983,
      "책": 984,
      "챔": 985,
      "챗": 986,
      "챘": 987,
      "챙": 988,
      "처": 989,
      "척": 990,
      "천": 991,
      "철": 992,
      "첨": 993,
      "첩": 994,
      "첫": 995,
      "청": 996,
      "체": 997,
      "쳇": 998,
      "쳐": 999,
      "쳤": 1000,
      "초": 1001,
      "촉": 1002,
      "촌": 1003,
      "총": 1004,
      "촬": 1005,
      "최": 1006,
      "추": 1007,
      "축": 1008,
      "춘": 1009,
      "출": 1010,
      "춤": 1011,
      "춥": 1012,
      "충": 1013,
      "춰": 1014,
      "췄": 1015,
      "취": 1016,
      "츄": 1017,
      "츠": 1018,
      "측": 1019,
      "츤": 1020,
      "층": 1021,
      "치": 1022,
      "칙": 1023,
      "친": 1024,
      "칠": 1025,
      "침": 1026,
      "칩": 1027,
      "칫": 1028,
      "칭": 1029,
      "카": 1030,
      "칼": 1031,
      "캄": 1032,
      "캐": 1033,
      "캔": 1034,
      "캬": 1035,
      "커": 1036,
      "컥": 1037,
      "컨": 1038,
      "컴": 1039,
      "컷": 1040,
      "컸": 1041,
      "컹": 1042,
      "케": 1043,
      "켓": 1044,
      "켜": 1045,
      "켠": 1046,
      "켰": 1047,
      "코": 1048,
      "콕": 1049,
      "콘": 1050,
      "콜": 1051,
      "콤": 1052,
      "콧": 1053,
      "콩": 1054,
      "쾌": 1055,
      "쿠": 1056,
      "쿨": 1057,
      "쿵": 1058,
      "쿼": 1059,
      "퀴": 1060,
      "큐": 1061,
      "크": 1062,
      "큰": 1063,
      "클": 1064,
      "큼": 1065,
      "킁": 1066,
      "키": 1067,
      "킥": 1068,
      "킨": 1069,
      "킬": 1070,
      "킴": 1071,
      "킹": 1072,
      "타": 1073,
      "탁": 1074,
      "탄": 1075,
      "탈": 1076,
      "탐": 1077,
      "탑": 1078,
      "탓": 1079,
      "탔": 1080,
      "탕": 1081,
      "태": 1082,
      "택": 1083,
      "탱": 1084,
      "터": 1085,
      "턱": 1086,
      "턴": 1087,
      "털": 1088,
      "텀": 1089,
      "텁": 1090,
      "텄": 1091,
      "텅": 1092,
      "테": 1093,
      "텍": 1094,
      "텐": 1095,
      "텔": 1096,
      "템": 1097,
      "텨": 1098,
      "텻": 1099,
      "텼": 1100,
      "토": 1101,
      "톡": 1102,
      "톤": 1103,
      "톱": 1104,
      "통": 1105,
      "퇴": 1106,
      "투": 1107,
      "툭": 1108,
      "툰": 1109,
      "툴": 1110,
      "툼": 1111,
      "퉁": 1112,
      "퉜": 1113,
      "튀": 1114,
      "튜": 1115,
      "트": 1116,
      "특": 1117,
      "틀": 1118,
      "틈": 1119,
      "틋": 1120,
      "티": 1121,
      "틱": 1122,
      "팀": 1123,
      "팁": 1124,
      "팅": 1125,
      "파": 1126,
      "팍": 1127,
      "판": 1128,
      "팔": 1129,
      "팠": 1130,
      "패": 1131,
      "팩": 1132,
      "팬": 1133,
      "팸": 1134,
      "퍼": 1135,
      "펑": 1136,
      "페": 1137,
      "펜": 1138,
      "펨": 1139,
      "펭": 1140,
      "펴": 1141,
      "편": 1142,
      "펼": 1143,
      "평": 1144,
      "폐": 1145,
      "포": 1146,
      "폭": 1147,
      "폰": 1148,
      "폼": 1149,
      "퐈": 1150,
      "표": 1151,
      "푸": 1152,
      "푹": 1153,
      "푼": 1154,
      "풀": 1155,
      "품": 1156,
      "풋": 1157,
      "풍": 1158,
      "퓨": 1159,
      "프": 1160,
      "픈": 1161,
      "플": 1162,
      "픔": 1163,
      "픕": 1164,
      "피": 1165,
      "픽": 1166,
      "핀": 1167,
      "필": 1168,
      "핍": 1169,
      "핏": 1170,
      "핑": 1171,
      "하": 1172,
      "학": 1173,
      "한": 1174,
      "할": 1175,
      "함": 1176,
      "합": 1177,
      "핫": 1178,
      "항": 1179,
      "해": 1180,
      "핸": 1181,
      "햇": 1182,
      "했": 1183,
      "행": 1184,
      "햐": 1185,
      "향": 1186,
      "허": 1187,
      "헉": 1188,
      "헌": 1189,
      "헐": 1190,
      "험": 1191,
      "헛": 1192,
      "헤": 1193,
      "헥": 1194,
      "헬": 1195,
      "헷": 1196,
      "헹": 1197,
      "혀": 1198,
      "현": 1199,
      "혈": 1200,
      "혐": 1201,
      "협": 1202,
      "혔": 1203,
      "형": 1204,
      "혜": 1205,
      "호": 1206,
      "혹": 1207,
      "혼": 1208,
      "홀": 1209,
      "홈": 1210,
      "화": 1211,
      "확": 1212,
      "환": 1213,
      "활": 1214,
      "홧": 1215,
      "황": 1216,
      "회": 1217,
      "획": 1218,
      "효": 1219,
      "후": 1220,
      "훅": 1221,
      "훈": 1222,
      "훌": 1223,
      "훔": 1224,
      "훨": 1225,
      "휘": 1226,
      "휙": 1227,
      "휨": 1228,
      "휴": 1229,
      "흐": 1230,
      "흑": 1231,
      "흔": 1232,
      "흘": 1233,
      "흠": 1234,
      "흡": 1235,
      "흥": 1236,
      "희": 1237,
      "흰": 1238,
      "히": 1239,
      "힌": 1240,
      "힐": 1241,
      "힘": 1242,
      "힙": 1243,
      "##지": 1244,
      "##한": 1245,
      "##기": 1246,
      "##는": 1247,
      "##식": 1248,
      "##하": 1249,
      "##에": 1250,
      "##게": 1251,
      "##톡": 1252,
      "##거": 1253,
      "##덤": 1254,
      "##해": 1255,
      "##질": 1256,
      "##난": 1257,
      "##부": 1258,
      "##히": 1259,
      "##음": 1260,
      "##시": 1261,
      "##별": 1262,
      "##증": 1263,
      "##후": 1264,
      "##군": 1265,
      "##리": 1266,
      "##워": 1267,
      "##했": 1268,
      "##나": 1269,
      "##봅": 1270,
      "##니": 1271,
      "##다": 1272,
      "##으": 1273,
      "##면": 1274,
      "##서": 1275,
      "##도": 1276,
      "##달": 1277,
      "##았": 1278,
      "##할": 1279,
      "##야": 1280,
      "##고": 1281,
      "##데": 1282,
      "##아": 1283,
      "##가": 1284,
      "##세": 1285,
      "##요": 1286,
      "##로": 1287,
      "##자": 1288,
      "##애": 1289,
      "##듬": 1290,
      "##어": 1291,
      "##주": 1292,
      "##비": 1293,
      "##관": 1294,
      "##심": 1295,
      "##봐": 1296,
      "##트": 1297,
      "##레": 1298,
      "##스": 1299,
      "##의": 1300,
      "##번": 1301,
      "##까": 1302,
      "##회": 1303,
      "##인": 1304,
      "##이": 1305,
      "##천": 1306,
      "##합": 1307,
      "##져": 1308,
      "##보": 1309,
      "##걸": 1310,
      "##금": 1311,
      "##은": 1312,
      "##뽀": 1313,
      "##르": 1314,
      "##사": 1315,
      "##람": 1316,
      "##라": 1317,
      "##딪": 1318,
      "##혀": 1319,
      "##못": 1320,
      "##갔": 1321,
      "##과": 1322,
      "##문": 1323,
      "##뜨": 1324,
      "##무": 1325,
      "##준": 1326,
      "##께": 1327,
      "##공": 1328,
      "##내": 1329,
      "##났": 1330,
      "##역": 1331,
      "##일": 1332,
      "##뿐": 1333,
      "##본": 1334,
      "##적": 1335,
      "##있": 1336,
      "##겨": 1337,
      "##울": 1338,
      "##때": 1339,
      "##날": 1340,
      "##랑": 1341,
      "##떤": 1342,
      "##건": 1343,
      "##강": 1344,
      "##총": 1345,
      "##을": 1346,
      "##간": 1347,
      "##네": 1348,
      "##대": 1349,
      "##풀": 1350,
      "##배": 1351,
      "##피": 1352,
      "##태": 1353,
      "##졌": 1354,
      "##화": 1355,
      "##마": 1356,
      "##약": 1357,
      "##순": 1358,
      "##년": 1359,
      "##감": 1360,
      "##죠": 1361,
      "##치": 1362,
      "##느": 1363,
      "##냐": 1364,
      "##귀": 1365,
      "##숨": 1366,
      "##만": 1367,
      "##예": 1368,
      "##개": 1369,
      "##들": 1370,
      "##었": 1371,
      "##청": 1372,
      "##소": 1373,
      "##쁜": 1374,
      "##말": 1375,
      "##방": 1376,
      "##막": 1377,
      "##활": 1378,
      "##혼": 1379,
      "##같": 1380,
      "##란": 1381,
      "##찮": 1382,
      "##겁": 1383,
      "##판": 1384,
      "##짓": 1385,
      "##길": 1386,
      "##절": 1387,
      "##려": 1388,
      "##렵": 1389,
      "##저": 1390,
      "##분": 1391,
      "##님": 1392,
      "##습": 1393,
      "##뎌": 1394,
      "##왔": 1395,
      "##단": 1396,
      "##당": 1397,
      "##를": 1398,
      "##학": 1399,
      "##없": 1400,
      "##복": 1401,
      "##렸": 1402,
      "##유": 1403,
      "##되": 1404,
      "##큼": 1405,
      "##련": 1406,
      "##친": 1407,
      "##명": 1408,
      "##타": 1409,
      "##핀": 1410,
      "##래": 1411,
      "##그": 1412,
      "##런": 1413,
      "##바": 1414,
      "##록": 1415,
      "##쁨": 1416,
      "##냥": 1417,
      "##프": 1418,
      "##포": 1419,
      "##즈": 1420,
      "##착": 1421,
      "##쳐": 1422,
      "##꺼": 1423,
      "##족": 1424,
      "##겹": 1425,
      "##살": 1426,
      "##장": 1427,
      "##집": 1428,
      "##컷": 1429,
      "##구": 1430,
      "##와": 1431,
      "##셨": 1432,
      "##각": 1433,
      "##켓": 1434,
      "##먹": 1435,
      "##진": 1436,
      "##결": 1437,
      "##정": 1438,
      "##권": 1439,
      "##겠": 1440,
      "##덜": 1441,
      "##샤": 1442,
      "##입": 1443,
      "##굴": 1444,
      "##효": 1445,
      "##떻": 1446,
      "##숙": 1447,
      "##함": 1448,
      "##담": 1449,
      "##된": 1450,
      "##랙": 1451,
      "##박": 1452,
      "##제": 1453,
      "##녀": 1454,
      "##터": 1455,
      "##것": 1456,
      "##잔": 1457,
      "##남": 1458,
      "##출": 1459,
      "##수": 1460,
      "##러": 1461,
      "##급": 1462,
      "##던": 1463,
      "##염": 1464,
      "##채": 1465,
      "##ㅠ": 1466,
      "##운": 1467,
      "##신": 1468,
      "##임": 1469,
      "##상": 1470,
      "##월": 1471,
      "##볍": 1472,
      "##셔": 1473,
      "##똑": 1474,
      "##낼": 1475,
      "##줘": 1476,
      "##행": 1477,
      "##작": 1478,
      "##닐": 1479,
      "##업": 1480,
      "##글": 1481,
      "##열": 1482,
      "##조": 1483,
      "##버": 1484,
      "##더": 1485,
      "##드": 1486,
      "##릴": 1487,
      "##맥": 1488,
      "##콩": 1489,
      "##너": 1490,
      "##둥": 1491,
      "##전": 1492,
      "##늘": 1493,
      "##용": 1494,
      "##매": 1495,
      "##오": 1496,
      "##빨": 1497,
      "##중": 1498,
      "##동": 1499,
      "##안": 1500,
      "##놓": 1501,
      "##럽": 1502,
      "##움": 1503,
      "##2": 1504,
      "##병": 1505,
      "##력": 1506,
      "##였": 1507,
      "##산": 1508,
      "##잠": 1509,
      "##냈": 1510,
      "##헤": 1511,
      "##렇": 1512,
      "##처": 1513,
      "##통": 1514,
      "##럼": 1515,
      "##툰": 1516,
      "##억": 1517,
      "##우": 1518,
      "##룩": 1519,
      "##씽": 1520,
      "##숭": 1521,
      "##생": 1522,
      "##근": 1523,
      "##택": 1524,
      "##팅": 1525,
      "##힘": 1526,
      "##여": 1527,
      "##뀌": 1528,
      "##계": 1529,
      "##컥": 1530,
      "##능": 1531,
      "##뿅": 1532,
      "##며": 1533,
      "##퇴": 1534,
      "##황": 1535,
      "##직": 1536,
      "##념": 1537,
      "##항": 1538,
      "##곡": 1539,
      "##ㅋ": 1540,
      "##됐": 1541,
      "##름": 1542,
      "##쓸": 1543,
      "##원": 1544,
      "##겟": 1545,
      "##옷": 1546,
      "##든": 1547,
      "##닌": 1548,
      "##득": 1549,
      "##락": 1550,
      "##탔": 1551,
      "##1": 1552,
      "##째": 1553,
      "##듯": 1554,
      "##목": 1555,
      "##짐": 1556,
      "##C": 1557,
      "##싶": 1558,
      "##픔": 1559,
      "##휴": 1560,
      "##승": 1561,
      "##술": 1562,
      "##땐": 1563,
      "##딩": 1564,
      "##끗": 1565,
      "##형": 1566,
      "##파": 1567,
      "##령": 1568,
      "##될": 1569,
      "##0": 1570,
      "##설": 1571,
      "##받": 1572,
      "##뱃": 1573,
      "##돈": 1574,
      "##퉁": 1575,
      "##물": 1576,
      "##루": 1577,
      "##른": 1578,
      "##잊": 1579,
      "##싫": 1580,
      "##삿": 1581,
      "##료": 1582,
      "##갑": 1583,
      "##렌": 1584,
      "##차": 1585,
      "##텐": 1586,
      "##푼": 1587,
      "##묵": 1588,
      "##키": 1589,
      "##성": 1590,
      "##색": 1591,
      "##례": 1592,
      "##허": 1593,
      "##밌": 1594,
      "##줄": 1595,
      "##두": 1596,
      "##웠": 1597,
      "##깝": 1598,
      "##놈": 1599,
      "##환": 1600,
      "##액": 1601,
      "##껴": 1602,
      "##추": 1603,
      "##벼": 1604,
      "##테": 1605,
      "##극": 1606,
      "##텨": 1607,
      "##탈": 1608,
      "##취": 1609,
      "##젠": 1610,
      "##끝": 1611,
      "##린": 1612,
      "##돼": 1613,
      "##답": 1614,
      "##탁": 1615,
      "##렘": 1616,
      "##싸": 1617,
      "##딜": 1618,
      "##망": 1619,
      "##경": 1620,
      "##쓰": 1621,
      "##춤": 1622,
      "##법": 1623,
      "##양": 1624,
      "##백": 1625,
      "##둬": 1626,
      "##잡": 1627,
      "##육": 1628,
      "##촬": 1629,
      "##영": 1630,
      "##깨": 1631,
      "##켜": 1632,
      "##랐": 1633,
      "##탄": 1634,
      "##온": 1635,
      "##국": 1636,
      "##뜻": 1637,
      "##롭": 1638,
      "##않": 1639,
      "##뱉": 1640,
      "##곤": 1641,
      "##체": 1642,
      "##호": 1643,
      "##흡": 1644,
      "##토": 1645,
      "##닉": 1646,
      "##틀": 1647,
      "##춘": 1648,
      "##쐬": 1649,
      "##초": 1650,
      "##점": 1651,
      "##럴": 1652,
      "##험": 1653,
      "##응": 1654,
      "##디": 1655,
      "##민": 1656,
      "##몸": 1657,
      "##밍": 1658,
      "##독": 1659,
      "##속": 1660,
      "##끈": 1661,
      "##평": 1662,
      "##값": 1663,
      "##펴": 1664,
      "##팍": 1665,
      "##밖": 1666,
      "##픈": 1667,
      "##ㅜ": 1668,
      "##맛": 1669,
      "##존": 1670,
      "##칠": 1671,
      "##빠": 1672,
      "##랜": 1673,
      "##플": 1674,
      "##쪽": 1675,
      "##따": 1676,
      "##놔": 1677,
      "##메": 1678,
      "##모": 1679,
      "##죽": 1680,
      "##빡": 1681,
      "##재": 1682,
      "##씹": 1683,
      "##티": 1684,
      "##콘": 1685,
      "##n": 1686,
      "##s": 1687,
      "##춰": 1688,
      "##씨": 1689,
      "##실": 1690,
      "##편": 1691,
      "##크": 1692,
      "##읽": 1693,
      "##듦": 1694,
      "##앙": 1695,
      "##킨": 1696,
      "##십": 1697,
      "##궈": 1698,
      "##미": 1699,
      "##,": 1700,
      "##찌": 1701,
      "##등": 1702,
      "##긴": 1703,
      "##척": 1704,
      "##누": 1705,
      "##쯤": 1706,
      "##끼": 1707,
      "##변": 1708,
      "##겼": 1709,
      "##섰": 1710,
      "##노": 1711,
      "##책": 1712,
      "##줬": 1713,
      "##샜": 1714,
      "##교": 1715,
      "##눠": 1716,
      "##머": 1717,
      "##연": 1718,
      "##쁠": 1719,
      "##깃": 1720,
      "##빈": 1721,
      "##류": 1722,
      "##3": 1723,
      "##돋": 1724,
      "##축": 1725,
      "##딛": 1726,
      "##투": 1727,
      "##됩": 1728,
      "##듣": 1729,
      "##랖": 1730,
      "##침": 1731,
      "##혐": 1732,
      "##뻔": 1733,
      "##페": 1734,
      "##널": 1735,
      "##귄": 1736,
      "##볼": 1737,
      "##쁘": 1738,
      "##갈": 1739,
      "##흘": 1740,
      "##짼": 1741,
      "##놀": 1742,
      "##렀": 1743,
      "##쳤": 1744,
      "##닿": 1745,
      "##현": 1746,
      "##낀": 1747,
      "##클": 1748,
      "##링": 1749,
      "##폰": 1750,
      "##꾸": 1751,
      "##둑": 1752,
      "##찾": 1753,
      "##씬": 1754,
      "##돌": 1755,
      "##꾼": 1756,
      "##규": 1757,
      "##선": 1758,
      "##얘": 1759,
      "##석": 1760,
      "##반": 1761,
      "##꿔": 1762,
      "##외": 1763,
      "##올": 1764,
      "##벽": 1765,
      "##붕": 1766,
      "##뻐": 1767,
      "##끔": 1768,
      "##봄": 1769,
      "##텼": 1770,
      "##넘": 1771,
      "##끄": 1772,
      "##늠": 1773,
      "##봤": 1774,
      "##위": 1775,
      "##싹": 1776,
      "##켠": 1777,
      "##종": 1778,
      "##립": 1779,
      "##격": 1780,
      "##됬": 1781,
      "##랬": 1782,
      "##접": 1783,
      "##덕": 1784,
      "##림": 1785,
      "##언": 1786,
      "##참": 1787,
      "##좀": 1788,
      "##궜": 1789,
      "##낌": 1790,
      "##햇": 1791,
      "##벤": 1792,
      "##덩": 1793,
      "##옴": 1794,
      "##악": 1795,
      "##쿠": 1796,
      "##켰": 1797,
      "##닝": 1798,
      "##촉": 1799,
      "##표": 1800,
      "##확": 1801,
      "##첨": 1802,
      "##윙": 1803,
      "##쟁": 1804,
      "##톱": 1805,
      "##향": 1806,
      "##닥": 1807,
      "##툴": 1808,
      "##?": 1809,
      "##검": 1810,
      "##빙": 1811,
      "##북": 1812,
      "##첩": 1813,
      "##랄": 1814,
      "##밀": 1815,
      "##맨": 1816,
      "##틱": 1817,
      "##챘": 1818,
      "##씀": 1819,
      "##뽑": 1820,
      "##헛": 1821,
      "##킴": 1822,
      "##떨": 1823,
      "##곳": 1824,
      "##덧": 1825,
      "##폭": 1826,
      "##풍": 1827,
      "##깊": 1828,
      "##깜": 1829,
      "##끌": 1830,
      "##발": 1831,
      "##쏠": 1832,
      "##웽": 1833,
      "##납": 1834,
      "##ㅎ": 1835,
      "##잘": 1836,
      "##겐": 1837,
      "##뉴": 1838,
      "##센": 1839,
      "##브": 1840,
      "##엔": 1841,
      "##커": 1842,
      "##웨": 1843,
      "##킬": 1844,
      "##낸": 1845,
      "##견": 1846,
      "##랭": 1847,
      "##쉬": 1848,
      "##획": 1849,
      "##패": 1850,
      "##슨": 1851,
      "##퍼": 1852,
      "##불": 1853,
      "##씩": 1854,
      "##섭": 1855,
      "##륜": 1856,
      "##짝": 1857,
      "##칭": 1858,
      "##좋": 1859,
      "##딘": 1860,
      "##벌": 1861,
      "##떠": 1862,
      "##닦": 1863,
      "##둠": 1864,
      "##퀴": 1865,
      "##빔": 1866,
      "##훈": 1867,
      "##잖": 1868,
      "##써": 1869,
      "##뢰": 1870,
      "##특": 1871,
      "##쉽": 1872,
      "##론": 1873,
      "##츠": 1874,
      "##뻤": 1875,
      "##창": 1876,
      "##충": 1877,
      "##케": 1878,
      "##꽈": 1879,
      "##낫": 1880,
      "##껏": 1881,
      "##쩌": 1882,
      "##닫": 1883,
      "##녔": 1884,
      "##핑": 1885,
      "##코": 1886,
      "##품": 1887,
      "##슷": 1888,
      "##넌": 1889,
      "##힌": 1890,
      "##룽": 1891,
      "##렛": 1892,
      "##측": 1893,
      "##잇": 1894,
      "##딱": 1895,
      "##혹": 1896,
      "##짜": 1897,
      "##둘": 1898,
      "##틈": 1899,
      "##눅": 1900,
      "##깐": 1901,
      "##빛": 1902,
      "##푸": 1903,
      "##띠": 1904,
      "##깍": 1905,
      "##궁": 1906,
      "##몽": 1907,
      "##꿨": 1908,
      "##카": 1909,
      "##괜": 1910,
      "##델": 1911,
      "##밥": 1912,
      "##멍": 1913,
      "##쌍": 1914,
      "##뚝": 1915,
      "##옥": 1916,
      "##콕": 1917,
      "##잼": 1918,
      "##핏": 1919,
      "##램": 1920,
      "##량": 1921,
      "##뜰": 1922,
      "##찍": 1923,
      "##땅": 1924,
      "##쫄": 1925,
      "##붙": 1926,
      "##4": 1927,
      "##웃": 1928,
      "##젝": 1929,
      "##혔": 1930,
      "##탐": 1931,
      "##렜": 1932,
      "##욕": 1933,
      "##찐": 1934,
      "##새": 1935,
      "##엽": 1936,
      "##벅": 1937,
      "##!": 1938,
      "##뤄": 1939,
      "##왓": 1940,
      "##빴": 1941,
      "##괴": 1942,
      "##팬": 1943,
      "##젹": 1944,
      "##랍": 1945,
      "##맙": 1946,
      "##덴": 1947,
      "##맞": 1948,
      "##찰": 1949,
      "##뽕": 1950,
      "##릿": 1951,
      "##욌": 1952,
      "##킥": 1953,
      "##녁": 1954,
      "##률": 1955,
      "##렴": 1956,
      "##폐": 1957,
      "##알": 1958,
      "##룸": 1959,
      "##N": 1960,
      "##S": 1961,
      "##윗": 1962,
      "##콤": 1963,
      "##뻣": 1964,
      "##뭇": 1965,
      "##끊": 1966,
      "##졋": 1967,
      "##익": 1968,
      "##흥": 1969,
      "##앗": 1970,
      "##뒤": 1971,
      "##농": 1972,
      "##떡": 1973,
      "##얄": 1974,
      "##5": 1975,
      "##꿈": 1976,
      "##.": 1977,
      "##퓨": 1978,
      "##템": 1979,
      "##챔": 1980,
      "##녕": 1981,
      "##풋": 1982,
      "##텁": 1983,
      "##썩": 1984,
      "##낄": 1985,
      "##찬": 1986,
      "##뀔": 1987,
      "##필": 1988,
      "##밭": 1989,
      "##멋": 1990,
      "##텍": 1991,
      "##쥐": 1992,
      "##베": 1993,
      "##싱": 1994,
      "##댔": 1995,
      "##싼": 1996,
      "##껄": 1997,
      "##깠": 1998,
      "##칼": 1999,
      "##얼": 2000,
      "##텻": 2001,
      "##귐": 2002,
      "##봉": 2003,
      "##앞": 2004,
      "##닷": 2005,
      "##D": 2006,
      "##됨": 2007,
      "##엇": 2008,
      "##턴": 2009,
      "##팠": 2010,
      "##눈": 2011,
      "##;": 2012,
      "##쿵": 2013,
      "##쭉": 2014,
      "##빵": 2015,
      "##솔": 2016,
      "##손": 2017,
      "##랠": 2018,
      "##슴": 2019,
      "##땜": 2020,
      "##~": 2021,
      "##줌": 2022,
      "##꼭": 2023,
      "##샘": 2024,
      "##션": 2025,
      "##징": 2026,
      "##범": 2027,
      "##놨": 2028,
      "##릅": 2029,
      "##빼": 2030,
      "##킹": 2031,
      "##꿀": 2032,
      "##딧": 2033,
      "##밸": 2034,
      "##_": 2035,
      "##엉": 2036,
      "##렬": 2037,
      "##밟": 2038,
      "##김": 2039,
      "##붓": 2040,
      "##똥": 2041,
      "##꼼": 2042,
      "##꼬": 2043,
      "##톤": 2044,
      "##철": 2045,
      "##맘": 2046,
      "##쩔": 2047,
      "##팔": 2048,
      "##뮤": 2049,
      "##즐": 2050,
      "##롤": 2051,
      "##귈": 2052,
      "##율": 2053,
      "##뿍": 2054,
      "##몬": 2055,
      "##찹": 2056,
      "##넷": 2057,
      "##텔": 2058,
      "##즘": 2059,
      "##릇": 2060,
      "##죄": 2061,
      "##빌": 2062,
      "##밤": 2063,
      "##썹": 2064,
      "##뇽": 2065,
      "##쌀": 2066,
      "##펨": 2067,
      "##듭": 2068,
      "##욜": 2069,
      "##꼈": 2070,
      "##앉": 2071,
      "##칩": 2072,
      "##밑": 2073,
      "##컨": 2074,
      "##팩": 2075,
      "##뀐": 2076,
      "##6": 2077,
      "##튜": 2078,
      "##쑥": 2079,
      "##셥": 2080,
      "##짰": 2081,
      "##갯": 2082,
      "##즙": 2083,
      "##삽": 2084,
      "##젔": 2085,
      "##캄": 2086,
      "##칫": 2087,
      "##폼": 2088,
      "##송": 2089,
      "##객": 2090,
      "##둔": 2091,
      "##껀": 2092,
      "##압": 2093,
      "##힐": 2094,
      "##뒹": 2095,
      "##쏟": 2096,
      "##쭈": 2097,
      "##렷": 2098,
      "##쨌": 2099,
      "##많": 2100,
      "##툼": 2101,
      "##탕": 2102,
      "##렐": 2103,
      "##섯": 2104,
      "##짠": 2105,
      "##젯": 2106,
      "##댓": 2107,
      "##먼": 2108,
      "##-": 2109,
      "##챙": 2110,
      "##몰": 2111,
      "##릭": 2112,
      "##겜": 2113,
      "##갖": 2114,
      "##넹": 2115,
      "##깅": 2116,
      "##늦": 2117,
      "##숍": 2118,
      "##꿎": 2119,
      "##핍": 2120,
      "##촌": 2121,
      "##협": 2122,
      "##냄": 2123,
      "##낳": 2124,
      "##슬": 2125,
      "##k": 2126,
      "##욱": 2127,
      "##띰": 2128,
      "##뎠": 2129,
      "##찢": 2130,
      "##볶": 2131,
      "##꽃": 2132,
      "##봇": 2133,
      "##쩡": 2134,
      "##떼": 2135,
      "##앨": 2136,
      "##댈": 2137,
      "##찡": 2138,
      "##9": 2139,
      "##꾹": 2140,
      "##륵": 2141,
      "##쩍": 2142,
      "##렉": 2143,
      "##덥": 2144,
      "##펑": 2145,
      "##쩐": 2146,
      "##뻑": 2147,
      "##컹": 2148,
      "##눴": 2149,
      "##o": 2150,
      "##g": 2151,
      "##낭": 2152,
      "##쎄": 2153,
      "##썸": 2154,
      "##씸": 2155,
      "##왕": 2156,
      "##블": 2157,
      "##곰": 2158,
      "##뵈": 2159,
      "##믿": 2160,
      "##왜": 2161,
      "##놉": 2162,
      "##볕": 2163,
      "##딨": 2164,
      "##킁": 2165,
      "##X": 2166,
      "##홀": 2167,
      "##맷": 2168,
      "##털": 2169,
      "##탱": 2170,
      "##쓴": 2171,
      "##또": 2172,
      "##퉜": 2173,
      "##넛": 2174,
      "##잤": 2175,
      "##맹": 2176,
      "##쭤": 2177,
      "##콜": 2178,
      "##흠": 2179,
      "##곗": 2180,
      "##큰": 2181,
      "##렁": 2182,
      "##릎": 2183,
      "##츄": 2184,
      "##웁": 2185,
      "##뚱": 2186,
      "##줍": 2187,
      "##룰": 2188,
      "##쇠": 2189,
      "##씰": 2190,
      "##찼": 2191,
      "##틋": 2192,
      "##벨": 2193,
      "##높": 2194,
      "##잌": 2195,
      "##뿌": 2196,
      "##칙": 2197,
      "##뱄": 2198,
      "##쾌": 2199,
      "##랫": 2200,
      "##댜": 2201,
      "##꽂": 2202,
      "##췄": 2203,
      "##골": 2204,
      "##옵": 2205,
      "##뛰": 2206,
      "##댄": 2207,
      "##냉": 2208,
      "##엘": 2209,
      "##쇼": 2210,
      "##뒀": 2211,
      "##뜩": 2212,
      "##쪄": 2213,
      "##졸": 2214,
      "##완": 2215,
      "##희": 2216,
      "##쌈": 2217,
      "##뭐": 2218,
      "##툭": 2219,
      "##옇": 2220,
      "##긋": 2221,
      "##냅": 2222,
      "##캔": 2223,
      "##헥": 2224,
      "##땠": 2225,
      "##P": 2226,
      "##L": 2227,
      "##픕": 2228,
      "##쿼": 2229,
      "##팸": 2230,
      "##팁": 2231,
      "##긍": 2232,
      "##c": 2233,
      "##롱": 2234,
      "##층": 2235,
      "##럿": 2236,
      "##뇨": 2237,
      "##B": 2238,
      "##짚": 2239,
      "##엣": 2240,
      "##곧": 2241,
      "##닙": 2242,
      "##세요": 2243,
      "##보세요": 2244,
      "##하는": 2245,
      "##예요": 2246,
      "사람": 2247,
      "좋아": 2248,
      "##어요": 2249,
      "거예요": 2250,
      "사랑": 2251,
      "##네요": 2252,
      "##니다": 2253,
      "생각": 2254,
      "##봐요": 2255,
      "##는데": 2256,
      "마음": 2257,
      "너무": 2258,
      "##아요": 2259,
      "좋아하는": 2260,
      "##해보세요": 2261,
      "이별": 2262,
      "연락": 2263,
      "##하고": 2264,
      "헤어": 2265,
      "있을": 2266,
      "여자": 2267,
      "남자": 2268,
      "##으면": 2269,
      "힘들": 2270,
      "##친구": 2271,
      "좋은": 2272,
      "##나봐요": 2273,
      "##하지": 2274,
      "많이": 2275,
      "시간": 2276,
      "사람이": 2277,
      "##에요": 2278,
      "##으로": 2279,
      "친구": 2280,
      "##한테": 2281,
      "##에서": 2282,
      "같아요": 2283,
      "##해요": 2284,
      "##까요": 2285,
      "##겠어요": 2286,
      "있어요": 2287,
      "싶어": 2288,
      "##하면": 2289,
      "오늘": 2290,
      "같아": 2291,
      "만나": 2292,
      "##하세요": 2293,
      "##이에요": 2294,
      "##하게": 2295,
      "##주세요": 2296,
      "##겠네요": 2297,
      "자신": 2298,
      "이제": 2299,
      "##에게": 2300,
      "좋을": 2301,
      "##습니다": 2302,
      "아니": 2303,
      "##는게": 2304,
      "괜찮": 2305,
      "마세요": 2306,
      "##겠지": 2307,
      "마음이": 2308,
      "##라고": 2309,
      "연애": 2310,
      "내가": 2311,
      "##게요": 2312,
      "있는": 2313,
      "필요": 2314,
      "##친구가": 2315,
      "해보세요": 2316,
      "모르": 2317,
      "어떻": 2318,
      "##다면": 2319,
      "다른": 2320,
      "##가봐요": 2321,
      "어떻게": 2322,
      "짝남": 2323,
      "헤어진": 2324,
      "시간이": 2325,
      "##다고": 2326,
      "없어": 2327,
      "당신": 2328,
      "##해도": 2329,
      "##겠어": 2330,
      "싶다": 2331,
      "다시": 2332,
      "##겠죠": 2333,
      "##사랑": 2334,
      "혼자": 2335,
      "하는": 2336,
      "있어": 2337,
      "하고": 2338,
      "##인데": 2339,
      "결혼": 2340,
      "정말": 2341,
      "지금": 2342,
      "##들이": 2343,
      "정리": 2344,
      "수도": 2345,
      "기다": 2346,
      "중요": 2347,
      "그런": 2348,
      "##야지": 2349,
      "##이네요": 2350,
      "행복": 2351,
      "##할까": 2352,
      "조금": 2353,
      "같이": 2354,
      "##어보세요": 2355,
      "것도": 2356,
      "##렇게": 2357,
      "고민": 2358,
      "##은데": 2359,
      "아직": 2360,
      "##라요": 2361,
      "짝사랑": 2362,
      "##지만": 2363,
      "##이라": 2364,
      "자꾸": 2365,
      "준비": 2366,
      "##지도": 2367,
      "선물": 2368,
      "찾아": 2369,
      "##보다": 2370,
      "보고": 2371,
      "아무": 2372,
      "힘든": 2373,
      "저도": 2374,
      "고백": 2375,
      "없어요": 2376,
      "##야기": 2377,
      "##이죠": 2378,
      "짝녀": 2379,
      "##거예요": 2380,
      "##까지": 2381,
      "바랄": 2382,
      "##니까요": 2383,
      "그럴": 2384,
      "진짜": 2385,
      "후회": 2386,
      "먼저": 2387,
      "서로": 2388,
      "##을까": 2389,
      "##겠다": 2390,
      "바랄게요": 2391,
      "없는": 2392,
      "##해서": 2393,
      "제가": 2394,
      "돼요": 2395,
      "방법": 2396,
      "사귀": 2397,
      "이야기": 2398,
      "##해야": 2399,
      "헤어지": 2400,
      "시작": 2401,
      "헤어진지": 2402,
      "들어": 2403,
      "해야": 2404,
      "있을까": 2405,
      "그녀": 2406,
      "하나": 2407,
      "##에는": 2408,
      "계속": 2409,
      "일이": 2410,
      "##인가": 2411,
      "##이야": 2412,
      "나를": 2413,
      "받아": 2414,
      "아닌": 2415,
      "좋아요": 2416,
      "공부": 2417,
      "##해주세요": 2418,
      "##볼까": 2419,
      "감정": 2420,
      "사랑이": 2421,
      "마음을": 2422,
      "가능": 2423,
      "될까": 2424,
      "보세요": 2425,
      "##이트": 2426,
      "기분": 2427,
      "여자친구가": 2428,
      "먹고": 2429,
      "힘드": 2430,
      "##려고": 2431,
      "남자친구가": 2432,
      "만들": 2433,
      "##기가": 2434,
      "##면서": 2435,
      "##보는": 2436,
      "##랍니다": 2437,
      "여자친구": 2438,
      "드세요": 2439,
      "않아요": 2440,
      "하세요": 2441,
      "##했어": 2442,
      "##대로": 2443,
      "신경": 2444,
      "이상": 2445,
      "좋죠": 2446,
      "하루": 2447,
      "##봅니다": 2448,
      "##다는": 2449,
      "##지는": 2450,
      "##리는": 2451,
      "많은": 2452,
      "하지": 2453,
      "##니까": 2454,
      "걱정": 2455,
      "##하기": 2456,
      "##자고": 2457,
      "알아": 2458,
      "바랍니다": 2459,
      "싫어": 2460,
      "상대": 2461,
      "##나요": 2462,
      "##합니다": 2463,
      "##하는게": 2464,
      "그래": 2465,
      "##입니다": 2466,
      "사랑하는": 2467,
      "관심": 2468,
      "기억": 2469,
      "힘들어": 2470,
      "데이트": 2471,
      "해요": 2472,
      "남자친구": 2473,
      "말해보세요": 2474,
      "상처": 2475,
      "##적인": 2476,
      "생각해요": 2477,
      "언제": 2478,
      "##이랑": 2479,
      "##로운": 2480,
      "##스러": 2481,
      "맛있": 2482,
      "어떨": 2483,
      "여행": 2484,
      "좋겠어요": 2485,
      "충분": 2486,
      "무슨": 2487,
      "어떤": 2488,
      "있었": 2489,
      "##하죠": 2490,
      "##다가": 2491,
      "있으면": 2492,
      "친구가": 2493,
      "그냥": 2494,
      "대화": 2495,
      "카톡": 2496,
      "할까": 2497,
      "함께": 2498,
      "##이었": 2499,
      "사람은": 2500,
      "않는": 2501,
      "이렇게": 2502,
      "##인지": 2503,
      "나만": 2504,
      "물어": 2505,
      "안돼": 2506,
      "##부터": 2507,
      "헤어졌": 2508,
      "내일": 2509,
      "오래": 2510,
      "누구": 2511,
      "몰라요": 2512,
      "않을": 2513,
      "표현": 2514,
      "##하네": 2515,
      "힘드네": 2516,
      "머리": 2517,
      "이해": 2518,
      "여친": 2519,
      "전화": 2520,
      "##라도": 2521,
      "자신을": 2522,
      "##가는": 2523,
      "사랑은": 2524,
      "결정": 2525,
      "궁금": 2526,
      "많아": 2527,
      "운동": 2528,
      "이유": 2529,
      "하면": 2530,
      "##리고": 2531,
      "새로운": 2532,
      "어디": 2533,
      "사람을": 2534,
      "선택": 2535,
      "아프": 2536,
      "한달": 2537,
      "##기도": 2538,
      "##겠지만": 2539,
      "어떨까요": 2540,
      "돌아": 2541,
      "부담": 2542,
      "스트": 2543,
      "썸남": 2544,
      "있는데": 2545,
      "생각해보세요": 2546,
      "스트레": 2547,
      "미련": 2548,
      "안되": 2549,
      "주세요": 2550,
      "##했던": 2551,
      "생겼": 2552,
      "해도": 2553,
      "##어도": 2554,
      "##텐데": 2555,
      "나한테": 2556,
      "타는": 2557,
      "회사": 2558,
      "노력": 2559,
      "말고": 2560,
      "보내": 2561,
      "직접": 2562,
      "##해주": 2563,
      "##개월": 2564,
      "##었어": 2565,
      "아니에요": 2566,
      "가고": 2567,
      "그만": 2568,
      "다가": 2569,
      "따라": 2570,
      "만큼": 2571,
      "##거나": 2572,
      "##나봐": 2573,
      "생각나": 2574,
      "때문": 2575,
      "않아": 2576,
      "인연": 2577,
      "좋겠네요": 2578,
      "지나": 2579,
      "##았는데": 2580,
      "생각이": 2581,
      "연락이": 2582,
      "그러": 2583,
      "싶은": 2584,
      "어떡": 2585,
      "##처럼": 2586,
      "생각을": 2587,
      "만날": 2588,
      "않았": 2589,
      "이젠": 2590,
      "재미": 2591,
      "##이나": 2592,
      "##움이": 2593,
      "같은데": 2594,
      "그게": 2595,
      "소개": 2596,
      "어려": 2597,
      "항상": 2598,
      "##나봅니다": 2599,
      "##으세요": 2600,
      "이별을": 2601,
      "괜찮아": 2602,
      "신경쓰": 2603,
      "스트레스": 2604,
      "그렇게": 2605,
      "남친": 2606,
      "쉽지": 2607,
      "인생": 2608,
      "잘못": 2609,
      "저는": 2610,
      "##해지": 2611,
      "##군요": 2612,
      "##가요": 2613,
      "마음에": 2614,
      "짝남이": 2615,
      "문제": 2616,
      "아파": 2617,
      "조심": 2618,
      "##적으로": 2619,
      "같은": 2620,
      "노래": 2621,
      "바라요": 2622,
      "좋겠다": 2623,
      "처음": 2624,
      "##기를": 2625,
      "##했는데": 2626,
      "##인가봐요": 2627,
      "모르겠어": 2628,
      "느낌": 2629,
      "상황": 2630,
      "어때": 2631,
      "##하네요": 2632,
      "##거라": 2633,
      "##어나": 2634,
      "##보고": 2635,
      "##하는데": 2636,
      "때가": 2637,
      "우리": 2638,
      "##하다": 2639,
      "##리세요": 2640,
      "##려보세요": 2641,
      "나이": 2642,
      "달라": 2643,
      "만났": 2644,
      "변화": 2645,
      "축하": 2646,
      "##는지": 2647,
      "중요한": 2648,
      "찾아보세요": 2649,
      "확실": 2650,
      "##스럽": 2651,
      "사랑을": 2652,
      "가보세요": 2653,
      "결국": 2654,
      "답답": 2655,
      "위로": 2656,
      "챙겨": 2657,
      "추억": 2658,
      "화장": 2659,
      "##졌어": 2660,
      "이별은": 2661,
      "가는": 2662,
      "기대": 2663,
      "나는": 2664,
      "다음": 2665,
      "말을": 2666,
      "현실": 2667,
      "생각해": 2668,
      "괜찮아요": 2669,
      "말씀": 2670,
      "사이": 2671,
      "세상": 2672,
      "영화": 2673,
      "요즘": 2674,
      "잊어": 2675,
      "좋겠어": 2676,
      "힘내": 2677,
      "##지요": 2678,
      "충분히": 2679,
      "그렇": 2680,
      "도움이": 2681,
      "사랑한": 2682,
      "대화를": 2683,
      "물어보세요": 2684,
      "열심": 2685,
      "의미": 2686,
      "있죠": 2687,
      "##지막": 2688,
      "##는거": 2689,
      "##감이": 2690,
      "##만에": 2691,
      "여자애": 2692,
      "아직도": 2693,
      "열심히": 2694,
      "가지": 2695,
      "가져": 2696,
      "마지막": 2697,
      "않은": 2698,
      "언젠": 2699,
      "추천": 2700,
      "확인": 2701,
      "##았어": 2702,
      "##이네": 2703,
      "##걸까": 2704,
      "##동안": 2705,
      "##싶어": 2706,
      "마음의": 2707,
      "연락을": 2708,
      "좋을까": 2709,
      "말해": 2710,
      "말아요": 2711,
      "먹어": 2712,
      "싶은데": 2713,
      "아침": 2714,
      "얼른": 2715,
      "정신": 2716,
      "집에": 2717,
      "##보면": 2718,
      "##것도": 2719,
      "##이라도": 2720,
      "가슴": 2721,
      "건강": 2722,
      "관계": 2723,
      "나쁜": 2724,
      "만남": 2725,
      "부모": 2726,
      "습관": 2727,
      "어제": 2728,
      "사랑의": 2729,
      "연락해보세요": 2730,
      "시간을": 2731,
      "오늘도": 2732,
      "상대방": 2733,
      "때문에": 2734,
      "1년": 2735,
      "거라": 2736,
      "되었": 2737,
      "매일": 2738,
      "##한가봐요": 2739,
      "##워요": 2740,
      "##으니까요": 2741,
      "##일까": 2742,
      "헤어짐": 2743,
      "짝녀가": 2744,
      "가장": 2745,
      "귀찮": 2746,
      "그리": 2747,
      "다르": 2748,
      "살고": 2749,
      "어느": 2750,
      "완전": 2751,
      "이런": 2752,
      "있나봐요": 2753,
      "재회": 2754,
      "##했나봐요": 2755,
      "##사람": 2756,
      "남자애": 2757,
      "당신의": 2758,
      "조금만": 2759,
      "부모님": 2760,
      "나가": 2761,
      "떨어": 2762,
      "바람": 2763,
      "아닐": 2764,
      "제일": 2765,
      "커피": 2766,
      "해볼까": 2767,
      "핸드": 2768,
      "##자기": 2769,
      "##릴게요": 2770,
      "조금씩": 2771,
      "헤어지고": 2772,
      "대한": 2773,
      "못하": 2774,
      "알려": 2775,
      "얼마": 2776,
      "오세요": 2777,
      "진심": 2778,
      "##감을": 2779,
      "##신이": 2780,
      "사람들": 2781,
      "좋아하": 2782,
      "남자가": 2783,
      "##하면서": 2784,
      "아니라": 2785,
      "같애": 2786,
      "많았": 2787,
      "모든": 2788,
      "성공": 2789,
      "순간": 2790,
      "자연": 2791,
      "잘할": 2792,
      "##한지": 2793,
      "##리가": 2794,
      "##더니": 2795,
      "기다리": 2796,
      "그래도": 2797,
      "핸드폰": 2798,
      "갑자기": 2799,
      "맞는": 2800,
      "살아": 2801,
      "엄마": 2802,
      "연습": 2803,
      "인정": 2804,
      "주말": 2805,
      "한번": 2806,
      "##스로": 2807,
      "이별이": 2808,
      "사람이랑": 2809,
      "자신의": 2810,
      "중요해요": 2811,
      "##스러운": 2812,
      "조심하세요": 2813,
      "되는": 2814,
      "사진": 2815,
      "알았는데": 2816,
      "엄청": 2817,
      "없을": 2818,
      "잊혀": 2819,
      "합니다": 2820,
      "했는데": 2821,
      "사람들이": 2822,
      "모르는": 2823,
      "가끔": 2824,
      "모두": 2825,
      "복잡": 2826,
      "스스로": 2827,
      "얼굴": 2828,
      "없네": 2829,
      "예의": 2830,
      "예뻐": 2831,
      "왔어": 2832,
      "재밌": 2833,
      "##지지": 2834,
      "##하겠어요": 2835,
      "##적이": 2836,
      "##수록": 2837,
      "좋아할": 2838,
      "여자가": 2839,
      "필요한": 2840,
      "날씨": 2841,
      "남편": 2842,
      "상관": 2843,
      "쉬운": 2844,
      "자주": 2845,
      "지내": 2846,
      "##달라고": 2847,
      "##마세요": 2848,
      "##같은": 2849,
      "##폭풍": 2850,
      "만나고": 2851,
      "짝남한테": 2852,
      "정리가": 2853,
      "소개팅": 2854,
      "떠나": 2855,
      "마시": 2856,
      "뭘까": 2857,
      "보는": 2858,
      "보이": 2859,
      "아픈": 2860,
      "알바": 2861,
      "저랑": 2862,
      "##었는데": 2863,
      "##왔어": 2864,
      "사람한테": 2865,
      "당신이": 2866,
      "기분이": 2867,
      "눈물": 2868,
      "되나": 2869,
      "무시": 2870,
      "무서": 2871,
      "실수": 2872,
      "싶어요": 2873,
      "있다면": 2874,
      "잘하는": 2875,
      "짜증": 2876,
      "피곤": 2877,
      "후폭풍": 2878,
      "##기로": 2879,
      "##거리": 2880,
      "##다니": 2881,
      "##없이": 2882,
      "##력이": 2883,
      "생각보다": 2884,
      "연락해": 2885,
      "모르겠어요": 2886,
      "어떡해": 2887,
      "나와": 2888,
      "도와": 2889,
      "별로": 2890,
      "아픔": 2891,
      "정도": 2892,
      "##해질": 2893,
      "##가고": 2894,
      "##건가": 2895,
      "##만큼": 2896,
      "##려요": 2897,
      "##쁘게": 2898,
      "오늘은": 2899,
      "지금도": 2900,
      "기다려": 2901,
      "받아들이": 2902,
      "만들어": 2903,
      "가족": 2904,
      "걸까": 2905,
      "극복": 2906,
      "끝나": 2907,
      "모습": 2908,
      "뭐가": 2909,
      "붙잡": 2910,
      "빨리": 2911,
      "사는": 2912,
      "솔직": 2913,
      "잘하고": 2914,
      "지켜": 2915,
      "차단": 2916,
      "천천": 2917,
      "학교": 2918,
      "##지가": 2919,
      "##해줘": 2920,
      "##일째": 2921,
      "사랑에": 2922,
      "친구랑": 2923,
      "괜찮은": 2924,
      "천천히": 2925,
      "감기": 2926,
      "것이": 2927,
      "그분": 2928,
      "끝났": 2929,
      "다녀": 2930,
      "따뜻": 2931,
      "마주": 2932,
      "벌써": 2933,
      "보여": 2934,
      "설레": 2935,
      "자기": 2936,
      "점점": 2937,
      "확신이": 2938,
      "환승": 2939,
      "##기까지": 2940,
      "##시간": 2941,
      "##마다": 2942,
      "##같아": 2943,
      "맛있게": 2944,
      "인연이": 2945,
      "내려": 2946,
      "두려": 2947,
      "만난": 2948,
      "사세요": 2949,
      "살펴": 2950,
      "아이": 2951,
      "운명": 2952,
      "직장": 2953,
      "하죠": 2954,
      "하는데": 2955,
      "힘이": 2956,
      "##기는": 2957,
      "##주는": 2958,
      "##이면": 2959,
      "##드릴게요": 2960,
      "사람도": 2961,
      "자신이": 2962,
      "당신을": 2963,
      "다가가": 2964,
      "날이": 2965,
      "놓아": 2966,
      "배우": 2967,
      "봐요": 2968,
      "잠시": 2969,
      "주변": 2970,
      "첫사랑": 2971,
      "행동": 2972,
      "##하나": 2973,
      "##하겠네요": 2974,
      "##거야": 2975,
      "연락하고": 2976,
      "힘들었": 2977,
      "하나씩": 2978,
      "이유가": 2979,
      "힘내세요": 2980,
      "게임": 2981,
      "나서": 2982,
      "눈을": 2983,
      "되어": 2984,
      "되길": 2985,
      "믿어요": 2986,
      "뿐이에요": 2987,
      "성격": 2988,
      "안녕": 2989,
      "익숙": 2990,
      "일찍": 2991,
      "##있는": 2992,
      "친구들": 2993,
      "##겠지요": 2994,
      "서로에게": 2995,
      "사귀고": 2996,
      "아닌데": 2997,
      "##스러워": 2998,
      "신경쓰지": 2999,
      "언젠간": 3000,
      "많았어요": 3001,
      "!!": 3002,
      "2년": 3003,
      "나도": 3004,
      "나을": 3005,
      "놀러": 3006,
      "도전": 3007,
      "마련": 3008,
      "무엇": 3009,
      "바라": 3010,
      "받고": 3011,
      "스타": 3012,
      "슬픈": 3013,
      "않죠": 3014,
      "있나": 3015,
      "즐거": 3016,
      "지났": 3017,
      "집착": 3018,
      "해주세요": 3019,
      "##리지": 3020,
      "##다보면": 3021,
      "##로워": 3022,
      "##이별": 3023,
      "힘들다": 3024,
      "가서": 3025,
      "거죠": 3026,
      "관리": 3027,
      "나아": 3028,
      "나오": 3029,
      "느껴": 3030,
      "아는": 3031,
      "오랜": 3032,
      "이겨": 3033,
      "자존": 3034,
      "전여": 3035,
      "주무": 3036,
      "후련": 3037,
      "##에도": 3038,
      "##래도": 3039,
      "##남친": 3040,
      "힘들게": 3041,
      "만나는": 3042,
      "행복해": 3043,
      "있었나봐요": 3044,
      "거짓": 3045,
      "끝이": 3046,
      "다행": 3047,
      "말이": 3048,
      "뭐야": 3049,
      "알게": 3050,
      "여유": 3051,
      "연인": 3052,
      "용기": 3053,
      "우울": 3054,
      "원하는": 3055,
      "위해": 3056,
      "일어나": 3057,
      "잊지": 3058,
      "자체": 3059,
      "최고": 3060,
      "카페": 3061,
      "포기": 3062,
      "헷갈": 3063,
      "##하길": 3064,
      "##이는": 3065,
      "##생활": 3066,
      "좋아해": 3067,
      "생각할": 3068,
      "이별한지": 3069,
      "아무것도": 3070,
      "아무래도": 3071,
      "이상형": 3072,
      "##이었을": 3073,
      "못하겠어": 3074,
      "곳으로": 3075,
      "꿈에": 3076,
      "나중": 3077,
      "눈이": 3078,
      "되지": 3079,
      "먹으면": 3080,
      "부족": 3081,
      "비싸": 3082,
      "소중": 3083,
      "썸타": 3084,
      "없이": 3085,
      "응원": 3086,
      "이어": 3087,
      "전에": 3088,
      "했어": 3089,
      "##지고": 3090,
      "##했어요": 3091,
      "##야죠": 3092,
      "##야겠다": 3093,
      "##르고": 3094,
      "##사를": 3095,
      "##정이": 3096,
      "##여행": 3097,
      "##여보세요": 3098,
      "사랑했던": 3099,
      "이별후": 3100,
      "지금은": 3101,
      "보고싶": 3102,
      "여친이": 3103,
      "먹어야지": 3104,
      "귀찮아": 3105,
      "주무세요": 3106,
      "거짓말": 3107,
      "금방": 3108,
      "늦지": 3109,
      "다를": 3110,
      "데려": 3111,
      "많아요": 3112,
      "미안": 3113,
      "보면": 3114,
      "보통": 3115,
      "부러": 3116,
      "생일": 3117,
      "싶네요": 3118,
      "싸우": 3119,
      "없죠": 3120,
      "전남친": 3121,
      "죽을": 3122,
      "##한데": 3123,
      "##져요": 3124,
      "##었나봐요": 3125,
      "##버렸": 3126,
      "##더라": 3127,
      "좋아하면": 3128,
      "좋아하게": 3129,
      "친구를": 3130,
      "괜찮을까": 3131,
      "필요해": 3132,
      "필요해요": 3133,
      "사귀는": 3134,
      "그녀를": 3135,
      "않아도": 3136,
      "가져보세요": 3137,
      "예의가": 3138,
      "나중에": 3139,
      "건지": 3140,
      "고생": 3141,
      "대로": 3142,
      "때까지": 3143,
      "맨날": 3144,
      "미리": 3145,
      "받는": 3146,
      "부분": 3147,
      "소식": 3148,
      "애가": 3149,
      "어렵": 3150,
      "없네요": 3151,
      "우산": 3152,
      "월급": 3153,
      "일을": 3154,
      "잊는": 3155,
      "작은": 3156,
      "잠이": 3157,
      "주는": 3158,
      "중에": 3159,
      "진정": 3160,
      "충전": 3161,
      "##리를": 3162,
      "##했으면": 3163,
      "##사친": 3164,
      "##들어": 3165,
      "##겠습니다": 3166,
      "##움을": 3167,
      "이별의": 3168,
      "친구한테": 3169,
      "만나지": 3170,
      "당신은": 3171,
      "중요하지": 3172,
      "##이라면": 3173,
      "짝녀한테": 3174,
      "감정을": 3175,
      "헤어졌습니다": 3176,
      "##해주는": 3177,
      "만났어": 3178,
      "##스럽게": 3179,
      "확인해보세요": 3180,
      "남편이": 3181,
      "살펴보세요": 3182,
      "전여친": 3183,
      "가세요": 3184,
      "기회": 3185,
      "드는": 3186,
      "로맨": 3187,
      "바쁜": 3188,
      "받을": 3189,
      "방학": 3190,
      "비밀": 3191,
      "생길": 3192,
      "쉬고": 3193,
      "시험": 3194,
      "아름": 3195,
      "안해": 3196,
      "안나": 3197,
      "알고": 3198,
      "앞에": 3199,
      "약속": 3200,
      "예쁘게": 3201,
      "자책": 3202,
      "잠깐": 3203,
      "종교": 3204,
      "편이": 3205,
      "하늘": 3206,
      "해봐요": 3207,
      "흘렀": 3208,
      "##하시": 3209,
      "##하려": 3210,
      "##하겠죠": 3211,
      "##해야지": 3212,
      "##으니": 3213,
      "##아서": 3214,
      "##이가": 3215,
      "##건지": 3216,
      "##대요": 3217,
      "##장이": 3218,
      "사랑해주세요": 3219,
      "좋아하는데": 3220,
      "연락해도": 3221,
      "힘들죠": 3222,
      "고민이야": 3223,
      "관심이": 3224,
      "언제나": 3225,
      "누구나": 3226,
      "변화가": 3227,
      "확실한": 3228,
      "남자애가": 3229,
      "가기": 3230,
      "같습니다": 3231,
      "꾸준": 3232,
      "끝내": 3233,
      "돈이": 3234,
      "마셔": 3235,
      "맞춰": 3236,
      "멋진": 3237,
      "미치": 3238,
      "바로": 3239,
      "바쁘": 3240,
      "분위": 3241,
      "시원": 3242,
      "않고": 3243,
      "없다면": 3244,
      "이번": 3245,
      "장난": 3246,
      "적당": 3247,
      "즐기": 3248,
      "타고": 3249,
      "허전": 3250,
      "##기만": 3251,
      "##하니": 3252,
      "##리게": 3253,
      "##가세요": 3254,
      "##들은": 3255,
      "##겠네": 3256,
      "사랑할": 3257,
      "사랑하고": 3258,
      "생각만": 3259,
      "힘들어요": 3260,
      "짝남이랑": 3261,
      "고민이": 3262,
      "##이라는": 3263,
      "아닌지": 3264,
      "그래요": 3265,
      "맛있는": 3266,
      "궁금해": 3267,
      "재미있": 3268,
      "알려줘": 3269,
      "즐거운": 3270,
      "2주": 3271,
      "그리고": 3272,
      "당연": 3273,
      "됐어": 3274,
      "되네": 3275,
      "드라": 3276,
      "드디": 3277,
      "먹을": 3278,
      "못하는": 3279,
      "바보": 3280,
      "보지": 3281,
      "봅니다": 3282,
      "쇼핑": 3283,
      "스킨": 3284,
      "시켜": 3285,
      "어울": 3286,
      "어쩌": 3287,
      "여러": 3288,
      "이러": 3289,
      "절대": 3290,
      "존중": 3291,
      "좋겠죠": 3292,
      "중인데": 3293,
      "취미": 3294,
      "칭찬": 3295,
      "해결": 3296,
      "##가네": 3297,
      "##어야": 3298,
      "##일이": 3299,
      "##들을": 3300,
      "##더라고": 3301,
      "##잖아요": 3302,
      "힘들겠지만": 3303,
      "좋은데": 3304,
      "친구들이": 3305,
      "이제는": 3306,
      "있는지": 3307,
      "받아들": 3308,
      "상처받": 3309,
      "여자애가": 3310,
      "드디어": 3311,
      "가면": 3312,
      "가야": 3313,
      "간다": 3314,
      "거기까지": 3315,
      "경우": 3316,
      "곳이": 3317,
      "당당": 3318,
      "동거": 3319,
      "때도": 3320,
      "마요": 3321,
      "문자": 3322,
      "뭐라고": 3323,
      "뭔지": 3324,
      "뭔가": 3325,
      "미워": 3326,
      "싫다": 3327,
      "안경": 3328,
      "않길": 3329,
      "예쁜": 3330,
      "예민": 3331,
      "이성": 3332,
      "일은": 3333,
      "있습니다": 3334,
      "잊고": 3335,
      "자격": 3336,
      "조언": 3337,
      "지쳤": 3338,
      "차분": 3339,
      "하셨": 3340,
      "해서": 3341,
      "헤아": 3342,
      "##해져": 3343,
      "##해지는": 3344,
      "##가를": 3345,
      "##보는게": 3346,
      "##신가봐요": 3347,
      "##줄까": 3348,
      "사람에": 3349,
      "사랑해": 3350,
      "시간은": 3351,
      "괜찮을": 3352,
      "않는다면": 3353,
      "미련이": 3354,
      "어려워": 3355,
      "가슴이": 3356,
      "어느덧": 3357,
      "아닐까요": 3358,
      "짜증나": 3359,
      "두려워": 3360,
      "로맨틱": 3361,
      "자책하지": 3362,
      "##더라고요": 3363,
      "10": 3364,
      "5년": 3365,
      "??": 3366,
      "것을": 3367,
      "그대로": 3368,
      "기본": 3369,
      "까먹": 3370,
      "나랑": 3371,
      "되고": 3372,
      "두달": 3373,
      "못해": 3374,
      "번호": 3375,
      "보러": 3376,
      "볼까": 3377,
      "서운": 3378,
      "슬프": 3379,
      "썸녀": 3380,
      "어쩔": 3381,
      "오는": 3382,
      "취직": 3383,
      "커플": 3384,
      "타이": 3385,
      "태어": 3386,
      "해주": 3387,
      "##한게": 3388,
      "##해졌": 3389,
      "##음이": 3390,
      "##아보세요": 3391,
      "##가봅니다": 3392,
      "##자리": 3393,
      "##이지": 3394,
      "##드려요": 3395,
      "##전히": 3396,
      "##받고": 3397,
      "##답니다": 3398,
      "사랑하면": 3399,
      "생각하고": 3400,
      "마음도": 3401,
      "마음은": 3402,
      "좋아하는게": 3403,
      "헤어져": 3404,
      "방법이": 3405,
      "물어보는": 3406,
      "부담스러워": 3407,
      "안되는": 3408,
      "그러면": 3409,
      "문제가": 3410,
      "축하해요": 3411,
      "자연스러운": 3412,
      "받아들이는": 3413,
      "다행이에요": 3414,
      "타이밍": 3415,
      "갖고": 3416,
      "같네요": 3417,
      "것보다": 3418,
      "군대": 3419,
      "귀여": 3420,
      "능력이": 3421,
      "떨려": 3422,
      "말하세요": 3423,
      "뭐든": 3424,
      "배워": 3425,
      "불편": 3426,
      "사과": 3427,
      "상담": 3428,
      "선생": 3429,
      "소리": 3430,
      "용기를": 3431,
      "일주": 3432,
      "잊을": 3433,
      "자유": 3434,
      "저를": 3435,
      "적응": 3436,
      "졸업": 3437,
      "집중": 3438,
      "최선": 3439,
      "흔들": 3440,
      "##식을": 3441,
      "##리스": 3442,
      "##했다": 3443,
      "##야할": 3444,
      "##자는": 3445,
      "##심해": 3446,
      "##스크": 3447,
      "##보여": 3448,
      "##때는": 3449,
      "##마스": 3450,
      "##상이에요": 3451,
      "##버리세요": 3452,
      "##오세요": 3453,
      "##줬으면": 3454,
      "##연애": 3455,
      "사람마다": 3456,
      "힘들겠어요": 3457,
      "사람이네요": 3458,
      "기다리고": 3459,
      "준비가": 3460,
      "후회하지": 3461,
      "이상한": 3462,
      "관심을": 3463,
      "충분한": 3464,
      "헤어졌어": 3465,
      "썸남이": 3466,
      "않았으면": 3467,
      "어려운": 3468,
      "위로해": 3469,
      "화장실": 3470,
      "다음에는": 3471,
      "가지고": 3472,
      "진심으로": 3473,
      "무서워": 3474,
      "꾸준히": 3475,
      "적당히": 3476,
      "선생님": 3477,
      "가치": 3478,
      "가야지": 3479,
      "고마": 3480,
      "그건": 3481,
      "그사람": 3482,
      "끝을": 3483,
      "나온": 3484,
      "누가": 3485,
      "대학": 3486,
      "두근": 3487,
      "몰랐": 3488,
      "몸이": 3489,
      "받았어": 3490,
      "배려": 3491,
      "병원": 3492,
      "삭제": 3493,
      "생기": 3494,
      "어색": 3495,
      "연예": 3496,
      "오빠": 3497,
      "원래": 3498,
      "위험": 3499,
      "이기": 3500,
      "일어": 3501,
      "있네요": 3502,
      "있겠어요": 3503,
      "있나요": 3504,
      "있잖아요": 3505,
      "잠을": 3506,
      "잠수": 3507,
      "저에게": 3508,
      "적극": 3509,
      "제대로": 3510,
      "좋았": 3511,
      "질투": 3512,
      "집안": 3513,
      "청소": 3514,
      "출근": 3515,
      "키우": 3516,
      "하는게": 3517,
      "##한거": 3518,
      "##한다": 3519,
      "##하려고": 3520,
      "##시켜": 3521,
      "##았나봐요": 3522,
      "##이어": 3523,
      "##만의": 3524,
      "##함이": 3525,
      "##오네": 3526,
      "사람과": 3527,
      "사람에게": 3528,
      "좋아하는지": 3529,
      "만나보세요": 3530,
      "자신에게": 3531,
      "그녀가": 3532,
      "감정이": 3533,
      "않을까요": 3534,
      "남친이": 3535,
      "후폭풍이": 3536,
      "스타일": 3537,
      "스킨십": 3538,
      "3년": 3539,
      "3개월": 3540,
      "감사": 3541,
      "경험": 3542,
      "꿈을": 3543,
      "나눠": 3544,
      "놀이": 3545,
      "눈치": 3546,
      "담배": 3547,
      "당황": 3548,
      "되겠네요": 3549,
      "말하는": 3550,
      "무뎌": 3551,
      "무너": 3552,
      "발표": 3553,
      "버려": 3554,
      "버텨": 3555,
      "보냈": 3556,
      "본인": 3557,
      "쉽게": 3558,
      "싫은": 3559,
      "안타": 3560,
      "안하고": 3561,
      "안들어": 3562,
      "애랑": 3563,
      "얘기": 3564,
      "어플": 3565,
      "올려": 3566,
      "일이에요": 3567,
      "좋지": 3568,
      "좋다": 3569,
      "착각": 3570,
      "편지": 3571,
      "프로": 3572,
      "프사": 3573,
      "하기": 3574,
      "해보는": 3575,
      "##하다고": 3576,
      "##시는": 3577,
      "##시길": 3578,
      "##가지": 3579,
      "##인거": 3580,
      "##이요": 3581,
      "##이라고": 3582,
      "##르는": 3583,
      "##내서": 3584,
      "##내고": 3585,
      "##었다": 3586,
      "##려면": 3587,
      "##놓고": 3588,
      "사람의": 3589,
      "좋아한": 3590,
      "만나자고": 3591,
      "자신감을": 3592,
      "있어도": 3593,
      "그런가봐요": 3594,
      "행복한": 3595,
      "보고싶어": 3596,
      "후회할": 3597,
      "서로를": 3598,
      "하나도": 3599,
      "##인가봐": 3600,
      "머리가": 3601,
      "상황을": 3602,
      "완전히": 3603,
      "성격이": 3604,
      "데려다": 3605,
      "아름다": 3606,
      "연예인": 3607,
      "같네": 3608,
      "과정": 3609,
      "귀엽": 3610,
      "기운": 3611,
      "끝은": 3612,
      "나타": 3613,
      "놀아요": 3614,
      "동생": 3615,
      "드시": 3616,
      "말도": 3617,
      "맘고": 3618,
      "먹는": 3619,
      "못하고": 3620,
      "바빠": 3621,
      "바꿔": 3622,
      "발전": 3623,
      "부탁": 3624,
      "사실": 3625,
      "살짝": 3626,
      "새벽": 3627,
      "생긴": 3628,
      "속이": 3629,
      "싶지": 3630,
      "안됐": 3631,
      "우선": 3632,
      "위한": 3633,
      "이사": 3634,
      "인사": 3635,
      "일도": 3636,
      "일상": 3637,
      "있고": 3638,
      "점심": 3639,
      "존재": 3640,
      "주고": 3641,
      "차이": 3642,
      "피부": 3643,
      "한동안": 3644,
      "해줘": 3645,
      "호감이": 3646,
      "##지네": 3647,
      "##질까": 3648,
      "##시다": 3649,
      "##리면": 3650,
      "##워질": 3651,
      "##했습니다": 3652,
      "##어머": 3653,
      "##이길": 3654,
      "##라는": 3655,
      "##라면": 3656,
      "##었네": 3657,
      "##없는": 3658,
      "##장을": 3659,
      "##구나": 3660,
      "##성이": 3661,
      "생각하세요": 3662,
      "##으면서": 3663,
      "힘들지": 3664,
      "만나세요": 3665,
      "혼자가": 3666,
      "기다릴": 3667,
      "아무리": 3668,
      "시작해보세요": 3669,
      "##인가요": 3670,
      "돌아오": 3671,
      "축하드려요": 3672,
      "말씀해주세요": 3673,
      "그리워": 3674,
      "연습을": 3675,
      "눈물이": 3676,
      "놓아주세요": 3677,
      "무엇이": 3678,
      "##리스마스": 3679,
      "맘고생": 3680,
      "SN": 3681,
      "가자고": 3682,
      "갈까": 3683,
      "걸로": 3684,
      "계획": 3685,
      "고쳐": 3686,
      "괜히": 3687,
      "괴롭": 3688,
      "그럼": 3689,
      "그랬": 3690,
      "다니": 3691,
      "다이어": 3692,
      "되는데": 3693,
      "듣고": 3694,
      "따로": 3695,
      "떠난": 3696,
      "면접": 3697,
      "목소": 3698,
      "못한": 3699,
      "무섭": 3700,
      "바뀌": 3701,
      "받지": 3702,
      "배고": 3703,
      "버스": 3704,
      "비가": 3705,
      "살까": 3706,
      "상사": 3707,
      "속상": 3708,
      "쉬는": 3709,
      "쓰레": 3710,
      "아는데": 3711,
      "애매": 3712,
      "없나": 3713,
      "없다": 3714,
      "없애": 3715,
      "외로워": 3716,
      "우연": 3717,
      "의지": 3718,
      "이용": 3719,
      "이름": 3720,
      "자고": 3721,
      "저녁": 3722,
      "주면": 3723,
      "지쳐": 3724,
      "지우": 3725,
      "크리스마스": 3726,
      "퇴근": 3727,
      "피해": 3728,
      "학원": 3729,
      "한잔": 3730,
      "했던": 3731,
      "현상이에요": 3732,
      "##하다면": 3733,
      "##음을": 3734,
      "##나는": 3735,
      "##봐도": 3736,
      "##이다": 3737,
      "##을지도": 3738,
      "##냐고": 3739,
      "##말고": 3740,
      "##드세요": 3741,
      "##력을": 3742,
      "##두세요": 3743,
      "생각하는": 3744,
      "연락하면": 3745,
      "남자를": 3746,
      "##하지마세요": 3747,
      "친구로": 3748,
      "만나서": 3749,
      "좋을텐데": 3750,
      "모르겠네요": 3751,
      "이야기해보세요": 3752,
      "여자친구와": 3753,
      "이상해": 3754,
      "사랑하는데": 3755,
      "##다가도": 3756,
      "지나갈": 3757,
      "괜찮아질": 3758,
      "괜찮아졌": 3759,
      "말씀해보세요": 3760,
      "사랑한다고": 3761,
      "자연스럽게": 3762,
      "오랜만에": 3763,
      "SNS": 3764,
      "다이어트": 3765,
      "4년": 3766,
      "6개월": 3767,
      "가벼": 3768,
      "간절": 3769,
      "거야": 3770,
      "거절": 3771,
      "건가": 3772,
      "견디": 3773,
      "고치": 3774,
      "꿈이": 3775,
      "냄새": 3776,
      "누군": 3777,
      "눈에": 3778,
      "느끼": 3779,
      "대해": 3780,
      "도서": 3781,
      "돈을": 3782,
      "되면": 3783,
      "될까요": 3784,
      "많죠": 3785,
      "뭐하지": 3786,
      "미래": 3787,
      "바뀔": 3788,
      "반복": 3789,
      "불안": 3790,
      "비교": 3791,
      "사라": 3792,
      "소화": 3793,
      "쉬어": 3794,
      "쉬세요": 3795,
      "신혼": 3796,
      "심해": 3797,
      "안와": 3798,
      "안좋": 3799,
      "안해도": 3800,
      "앞으로": 3801,
      "앞에서": 3802,
      "없는데": 3803,
      "영원": 3804,
      "오해": 3805,
      "이거": 3806,
      "이혼": 3807,
      "인형": 3808,
      "있지": 3809,
      "장거리": 3810,
      "주지": 3811,
      "취업": 3812,
      "했으면": 3813,
      "호감을": 3814,
      "##지면": 3815,
      "##하니까": 3816,
      "##해봐요": 3817,
      "##리기": 3818,
      "##어서": 3819,
      "##일지도": 3820,
      "##을거예요": 3821,
      "##을텐데": 3822,
      "##을거라": 3823,
      "##느라": 3824,
      "##만이": 3825,
      "##소한": 3826,
      "##상을": 3827,
      "##였어": 3828,
      "##됐어": 3829,
      "좋아할까": 3830,
      "연락처": 3831,
      "연락하지": 3832,
      "사람이에요": 3833,
      "만나면": 3834,
      "필요할": 3835,
      "결혼식": 3836,
      "기다리는": 3837,
      "짝사랑하는": 3838,
      "들어드릴게요": 3839,
      "상처를": 3840,
      "내일은": 3841,
      "궁금하네요": 3842,
      "선택일": 3843,
      "부담스럽": 3844,
      "생각나는": 3845,
      "않았어요": 3846,
      "##해지면": 3847,
      "나이가": 3848,
      "만났는데": 3849,
      "확실히": 3850,
      "추억이": 3851,
      "날씨가": 3852,
      "붙잡고": 3853,
      "지켜보세요": 3854,
      "마주치": 3855,
      "여유를": 3856,
      "소중한": 3857,
      "분위기": 3858,
      "어쩌지": 3859,
      "일주일": 3860,
      "도서관": 3861,
      "가까": 3862,
      "갑작": 3863,
      "개인": 3864,
      "거울": 3865,
      "결과": 3866,
      "기간": 3867,
      "기념": 3868,
      "깔끔": 3869,
      "꿈에서": 3870,
      "나의": 3871,
      "내는": 3872,
      "느려": 3873,
      "달라고": 3874,
      "대단": 3875,
      "되죠": 3876,
      "때는": 3877,
      "때네요": 3878,
      "마스크": 3879,
      "멋있": 3880,
      "못할": 3881,
      "미친": 3882,
      "벗어나": 3883,
      "불러": 3884,
      "비슷": 3885,
      "사귈": 3886,
      "슬퍼": 3887,
      "썸이": 3888,
      "않네": 3889,
      "않으면": 3890,
      "야근": 3891,
      "역시": 3892,
      "옆에": 3893,
      "완벽": 3894,
      "왔다": 3895,
      "왔는데": 3896,
      "있으니까요": 3897,
      "잡고": 3898,
      "전해보세요": 3899,
      "조급": 3900,
      "졸려": 3901,
      "집에서": 3902,
      "차별": 3903,
      "치과": 3904,
      "크게": 3905,
      "타는데": 3906,
      "편하게": 3907,
      "하다보면": 3908,
      "했습니다": 3909,
      "호감": 3910,
      "##하셨": 3911,
      "##거려": 3912,
      "##으시": 3913,
      "##으려고": 3914,
      "##할지": 3915,
      "##세먼": 3916,
      "##요일": 3917,
      "##주지": 3918,
      "##심이": 3919,
      "##인듯": 3920,
      "##이고": 3921,
      "##었던": 3922,
      "##상이": 3923,
      "##밖에": 3924,
      "##줬어": 3925,
      "좋아하고": 3926,
      "사랑해서": 3927,
      "연락하는": 3928,
      "연애는": 3929,
      "필요하죠": 3930,
      "고민하고": 3931,
      "아무도": 3932,
      "저도요": 3933,
      "이야기네요": 3934,
      "시작이": 3935,
      "그녀의": 3936,
      "가능할": 3937,
      "##면서도": 3938,
      "여자친구의": 3939,
      "걱정되": 3940,
      "걱정돼": 3941,
      "알아보세요": 3942,
      "남자친구의": 3943,
      "이해해주세요": 3944,
      "어디서": 3945,
      "썸남한테": 3946,
      "노력해보세요": 3947,
      "생각나네": 3948,
      "어떡하지": 3949,
      "상황이": 3950,
      "어때요": 3951,
      "잊어버리세요": 3952,
      "얼마나": 3953,
      "엄마가": 3954,
      "예뻐요": 3955,
      "##적이든": 3956,
      "무서운": 3957,
      "친구들과": 3958,
      "헷갈리게": 3959,
      "흘렀네요": 3960,
      "지쳤나봐요": 3961,
      "헤어져야": 3962,
      "집안일": 3963,
      "쓰레기": 3964,
      "3주": 3965,
      "ㅠㅠ": 3966,
      "거지": 3967,
      "견뎌": 3968,
      "고통": 3969,
      "공허": 3970,
      "권태": 3971,
      "그동안": 3972,
      "긍정": 3973,
      "기울": 3974,
      "깨달": 3975,
      "꿨어": 3976,
      "나올": 3977,
      "남았": 3978,
      "남의": 3979,
      "남사친": 3980,
      "놀고": 3981,
      "놀아": 3982,
      "동물": 3983,
      "라면": 3984,
      "마무": 3985,
      "만드": 3986,
      "말할": 3987,
      "먹을까": 3988,
      "멀어": 3989,
      "몰라": 3990,
      "무덤": 3991,
      "문득": 3992,
      "미세먼": 3993,
      "버리세요": 3994,
      "보일": 3995,
      "부럽": 3996,
      "분명": 3997,
      "사야": 3998,
      "사고": 3999,
      "사회": 4000,
      "사귄": 4001,
      "샀어": 4002,
      "상태": 4003,
      "생활": 4004,
      "선톡": 4005,
      "시계": 4006,
      "실망": 4007,
      "실감이": 4008,
      "심호": 4009,
      "썸인지": 4010,
      "쓰는": 4011,
      "아까": 4012,
      "않게": 4013,
      "않으니까요": 4014,
      "알았": 4015,
      "야경": 4016,
      "어서": 4017,
      "어장": 4018,
      "없다고": 4019,
      "여기까지": 4020,
      "여사친": 4021,
      "외로": 4022,
      "용기가": 4023,
      "원망": 4024,
      "유지": 4025,
      "은근": 4026,
      "이건": 4027,
      "이루": 4028,
      "이럴": 4029,
      "인간": 4030,
      "있는게": 4031,
      "있지만": 4032,
      "잘해줘": 4033,
      "저한테": 4034,
      "전부": 4035,
      "정확": 4036,
      "중간": 4037,
      "줘도": 4038,
      "지워": 4039,
      "차가": 4040,
      "추워": 4041,
      "친한": 4042,
      "택시": 4043,
      "텐데": 4044,
      "판단": 4045,
      "편할": 4046,
      "평소": 4047,
      "할텐데": 4048,
      "해야지": 4049,
      "혹시": 4050,
      "화가": 4051,
      "희망": 4052,
      "##한다면": 4053,
      "##기간": 4054,
      "##해볼까": 4055,
      "##니가": 4056,
      "##으니까": 4057,
      "##주고": 4058,
      "##준비": 4059,
      "##었어요": 4060,
      "##방법": 4061,
      "##같이": 4062,
      "##려도": 4063,
      "##먹고": 4064,
      "##남자": 4065,
      "##러워": 4066,
      "##러가": 4067,
      "##오는": 4068,
      "##싶다": 4069,
      "##될까": 4070,
      "##머리": 4071,
      "##립니다": 4072,
      "사람으로": 4073,
      "좋아해도": 4074,
      "사랑하지": 4075,
      "생각하지": 4076,
      "남자들은": 4077,
      "만나는게": 4078,
      "아니었": 4079,
      "아니라고": 4080,
      "연애를": 4081,
      "필요는": 4082,
      "당신도": 4083,
      "기다려보세요": 4084,
      "행복할": 4085,
      "행복하게": 4086,
      "찾아올": 4087,
      "짝녀랑": 4088,
      "후회가": 4089,
      "서로의": 4090,
      "이야기를": 4091,
      "만들어보세요": 4092,
      "여자친구랑": 4093,
      "그래서": 4094,
      "상처가": 4095,
      "언제쯤": 4096,
      "여행을": 4097,
      "헤어졌는데": 4098,
      "결정을": 4099,
      "결정이었을": 4100,
      "이유를": 4101,
      "생겼어": 4102,
      "회사에서": 4103,
      "지나갔": 4104,
      "인생은": 4105,
      "변화를": 4106,
      "잊어야": 4107,
      "가지세요": 4108,
      "아침에": 4109,
      "상대방을": 4110,
      "잊혀지": 4111,
      "지내고": 4112,
      "무시하세요": 4113,
      "썸타는": 4114,
      "즐기세요": 4115,
      "받아들여": 4116,
      "당당하게": 4117,
      "안타깝": 4118,
      "기념일": 4119,
      "무덤덤": 4120,
      "심호흡": 4121,
      "가요": 4122,
      "거니": 4123,
      "거겠죠": 4124,
      "계절": 4125,
      "공통": 4126,
      "그것": 4127,
      "길이": 4128,
      "깊은": 4129,
      "끝난": 4130,
      "나은": 4131,
      "나왔": 4132,
      "나왔어": 4133,
      "남을": 4134,
      "놓고": 4135,
      "다들": 4136,
      "다양": 4137,
      "더워": 4138,
      "동안": 4139,
      "됐으면": 4140,
      "되기도": 4141,
      "됩니다": 4142,
      "두고": 4143,
      "때를": 4144,
      "때론": 4145,
      "똑같은": 4146,
      "마다": 4147,
      "막말": 4148,
      "만든": 4149,
      "많은데": 4150,
      "말투": 4151,
      "말이에요": 4152,
      "먹었": 4153,
      "멈추": 4154,
      "반대": 4155,
      "봐도": 4156,
      "소문": 4157,
      "소원": 4158,
      "수가": 4159,
      "수록": 4160,
      "스키": 4161,
      "시어머": 4162,
      "신고": 4163,
      "쐬고": 4164,
      "아예": 4165,
      "안전": 4166,
      "안하는": 4167,
      "알면서도": 4168,
      "애한테": 4169,
      "어린": 4170,
      "없으면": 4171,
      "울적": 4172,
      "음악": 4173,
      "이게": 4174,
      "있길": 4175,
      "있겠지": 4176,
      "있겠죠": 4177,
      "자세": 4178,
      "조절": 4179,
      "좋지만": 4180,
      "중국": 4181,
      "지난": 4182,
      "진급": 4183,
      "짧은": 4184,
      "채워": 4185,
      "축구": 4186,
      "취향": 4187,
      "클럽": 4188,
      "통보": 4189,
      "편한": 4190,
      "평생": 4191,
      "피할": 4192,
      "하게": 4193,
      "하면서": 4194,
      "현금": 4195,
      "현재": 4196,
      "##지로": 4197,
      "##거를": 4198,
      "##해줄": 4199,
      "##리네": 4200,
      "##했네": 4201,
      "##나게": 4202,
      "##스타": 4203,
      "##일까요": 4204,
      "##렸어": 4205,
      "##되는": 4206,
      "##ㅠㅠ": 4207,
      "##릴까": 4208,
      "##두고": 4209,
      "##점을": 4210,
      "##디션": 4211,
      "##웨딩": 4212,
      "##듭니다": 4213,
      "생각하": 4214,
      "연락은": 4215,
      "있을거예요": 4216,
      "자신에": 4217,
      "아니면": 4218,
      "모르고": 4219,
      "없어서": 4220,
      "지금처럼": 4221,
      "정리하는게": 4222,
      "짝사랑이": 4223,
      "준비해보세요": 4224,
      "선물이": 4225,
      "방법이에요": 4226,
      "헤어지자고": 4227,
      "그녀는": 4228,
      "감정에": 4229,
      "가능성이": 4230,
      "상대를": 4231,
      "힘들어서": 4232,
      "충분해요": 4233,
      "안돼요": 4234,
      "운동을": 4235,
      "선택을": 4236,
      "아프네": 4237,
      "한달이": 4238,
      "생겼는데": 4239,
      "##해주고": 4240,
      "달라지는": 4241,
      "위로가": 4242,
      "사랑한다면": 4243,
      "여자애한테": 4244,
      "언젠가": 4245,
      "상대방이": 4246,
      "떨어졌어": 4247,
      "사람들에게": 4248,
      "좋아하던": 4249,
      "아니라면": 4250,
      "만난지": 4251,
      "이겨낼": 4252,
      "자존감이": 4253,
      "용기내서": 4254,
      "최고죠": 4255,
      "응원합니다": 4256,
      "미안해": 4257,
      "부러워": 4258,
      "부러워요": 4259,
      "##버렸어": 4260,
      "진정한": 4261,
      "방학이": 4262,
      "드라마": 4263,
      "이성으로": 4264,
      "가치관": 4265,
      "적극적으로": 4266,
      "안됐는데": 4267,
      "한동안은": 4268,
      "부담스럽지": 4269,
      "2달": 4270,
      "6년": 4271,
      "각자": 4272,
      "갔다": 4273,
      "거의": 4274,
      "걸릴": 4275,
      "것은": 4276,
      "결심": 4277,
      "골라": 4278,
      "곳에": 4279,
      "곳에서": 4280,
      "과일": 4281,
      "교회": 4282,
      "근처": 4283,
      "글을": 4284,
      "긴장": 4285,
      "끝까지": 4286,
      "나면": 4287,
      "나쁘": 4288,
      "남겨": 4289,
      "내세요": 4290,
      "냉장": 4291,
      "늦게": 4292,
      "단단": 4293,
      "달달": 4294,
      "당장": 4295,
      "두번": 4296,
      "둘이": 4297,
      "드네": 4298,
      "만족": 4299,
      "말까": 4300,
      "말은": 4301,
      "맥주": 4302,
      "모아": 4303,
      "무리": 4304,
      "뭐하고": 4305,
      "믿음이": 4306,
      "바꾸": 4307,
      "바꿀": 4308,
      "밖에": 4309,
      "변덕": 4310,
      "분이": 4311,
      "불행": 4312,
      "사용": 4313,
      "사소한": 4314,
      "산책": 4315,
      "새로": 4316,
      "설렘": 4317,
      "셀프": 4318,
      "시기": 4319,
      "신청": 4320,
      "싶네": 4321,
      "썸인데": 4322,
      "쓰고": 4323,
      "쓸데": 4324,
      "아빠": 4325,
      "알면": 4326,
      "없나봐요": 4327,
      "여기": 4328,
      "예쁘": 4329,
      "오면": 4330,
      "온전히": 4331,
      "올라": 4332,
      "왜이": 4333,
      "외국": 4334,
      "움직": 4335,
      "인기가": 4336,
      "일이네요": 4337,
      "있네": 4338,
      "있다고": 4339,
      "자리": 4340,
      "잘해": 4341,
      "잘생": 4342,
      "적어보세요": 4343,
      "전공": 4344,
      "전환": 4345,
      "제발": 4346,
      "제자리": 4347,
      "좋겠지": 4348,
      "좋겠지만": 4349,
      "진실": 4350,
      "집이": 4351,
      "집들이": 4352,
      "초대": 4353,
      "최악": 4354,
      "태도": 4355,
      "파이": 4356,
      "페북": 4357,
      "피하세요": 4358,
      "하네": 4359,
      "화를": 4360,
      "휴가": 4361,
      "##지를": 4362,
      "##한가": 4363,
      "##하러": 4364,
      "##하루": 4365,
      "##하거나": 4366,
      "##부를": 4367,
      "##시면": 4368,
      "##할때": 4369,
      "##데요": 4370,
      "##아지": 4371,
      "##가면": 4372,
      "##이란": 4373,
      "##울까": 4374,
      "##간의": 4375,
      "##배가": 4376,
      "##만으로": 4377,
      "##없어": 4378,
      "##셨나봐요": 4379,
      "##수도": 4380,
      "##더라도": 4381,
      "##전에": 4382,
      "##전환": 4383,
      "##였나봐요": 4384,
      "##통보": 4385,
      "##싶은데": 4386,
      "##줄게요": 4387,
      "##웠어": 4388,
      "##ns": 4389,
      "##겼어": 4390,
      "좋아해요": 4391,
      "사랑으로": 4392,
      "생각한": 4393,
      "생각에": 4394,
      "생각은": 4395,
      "생각이에요": 4396,
      "마음으로": 4397,
      "이별통보": 4398,
      "여자를": 4399,
      "남자는": 4400,
      "힘들겠네요": 4401,
      "힘들겠지": 4402,
      "##하지만": 4403,
      "아니야": 4404,
      "필요하겠네요": 4405,
      "정리할": 4406,
      "중요하죠": 4407,
      "선물을": 4408,
      "고백해보세요": 4409,
      "고백해도": 4410,
      "공부는": 4411,
      "기분전환": 4412,
      "하루하루": 4413,
      "남자친구와": 4414,
      "##이었으면": 4415,
      "물어봐": 4416,
      "물어보": 4417,
      "표현해": 4418,
      "아프네요": 4419,
      "썸남이랑": 4420,
      "느낌이": 4421,
      "나이는": 4422,
      "사이가": 4423,
      "그렇지": 4424,
      "그렇지만": 4425,
      "관계를": 4426,
      "습관이에요": 4427,
      "부모님이": 4428,
      "떨어져": 4429,
      "알려주세요": 4430,
      "진심을": 4431,
      "상관없": 4432,
      "모습이": 4433,
      "따뜻한": 4434,
      "환승이별": 4435,
      "힘들었겠어요": 4436,
      "지났네": 4437,
      "기회가": 4438,
      "시원한": 4439,
      "차분히": 4440,
      "하셨네요": 4441,
      "최선의": 4442,
      "아름다운": 4443,
      "무엇이든": 4444,
      "마무리": 4445,
      "부럽네요": 4446,
      "냉장고": 4447,
      "사용해보세요": 4448,
      "파이팅": 4449,
      "30": 4450,
      "7년": 4451,
      "8년": 4452,
      "sns": 4453,
      "간접": 4454,
      "걸어보세요": 4455,
      "겨울": 4456,
      "고맙": 4457,
      "공시": 4458,
      "공무": 4459,
      "과식": 4460,
      "과거": 4461,
      "교양": 4462,
      "글로": 4463,
      "기술": 4464,
      "나에게": 4465,
      "남아": 4466,
      "낫죠": 4467,
      "내요": 4468,
      "내보세요": 4469,
      "넘어": 4470,
      "다되": 4471,
      "달콤": 4472,
      "도시": 4473,
      "돌려보세요": 4474,
      "됐네": 4475,
      "됐는데": 4476,
      "떨리": 4477,
      "라고": 4478,
      "마실": 4479,
      "많을": 4480,
      "말아": 4481,
      "맘에": 4482,
      "맘이": 4483,
      "맛난": 4484,
      "매력": 4485,
      "머릿": 4486,
      "메뉴": 4487,
      "면도": 4488,
      "목표": 4489,
      "물리": 4490,
      "뭐라도": 4491,
      "믿어보세요": 4492,
      "밀당": 4493,
      "바쁘게": 4494,
      "반지": 4495,
      "받았": 4496,
      "벚꽃": 4497,
      "변명": 4498,
      "보기": 4499,
      "보니": 4500,
      "보험": 4501,
      "부자": 4502,
      "부딪": 4503,
      "빠르": 4504,
      "선이": 4505,
      "소비": 4506,
      "시기가": 4507,
      "심심": 4508,
      "싶습니다": 4509,
      "썸의": 4510,
      "아껴": 4511,
      "아쉬": 4512,
      "않는데": 4513,
      "않겠지만": 4514,
      "앞머리": 4515,
      "애정": 4516,
      "어찌": 4517,
      "억지로": 4518,
      "없겠네요": 4519,
      "여전히": 4520,
      "오지": 4521,
      "오네": 4522,
      "오랫": 4523,
      "외롭": 4524,
      "용서": 4525,
      "용돈": 4526,
      "우세요": 4527,
      "울어도": 4528,
      "의사를": 4529,
      "이불": 4530,
      "이뤄": 4531,
      "인기": 4532,
      "있게": 4533,
      "있다는": 4534,
      "있으니": 4535,
      "잊으세요": 4536,
      "잘했어요": 4537,
      "절약": 4538,
      "죽고": 4539,
      "중독": 4540,
      "지칠": 4541,
      "참고": 4542,
      "청첩": 4543,
      "파혼": 4544,
      "편안": 4545,
      "풀릴": 4546,
      "하나봐요": 4547,
      "한다": 4548,
      "했나봐요": 4549,
      "행운": 4550,
      "향수": 4551,
      "헬스": 4552,
      "회식": 4553,
      "휴식": 4554,
      "휴대": 4555,
      "##하던": 4556,
      "##하자고": 4557,
      "##하다가": 4558,
      "##거같아": 4559,
      "##부로": 4560,
      "##시겠어요": 4561,
      "##했겠어요": 4562,
      "##나면": 4563,
      "##도록": 4564,
      "##할게요": 4565,
      "##가서": 4566,
      "##가락": 4567,
      "##인이": 4568,
      "##이니": 4569,
      "##갔어": 4570,
      "##순위": 4571,
      "##냐에": 4572,
      "##혼자": 4573,
      "##유증": 4574,
      "##래요": 4575,
      "##포즈": 4576,
      "##장면": 4577,
      "##장에서": 4578,
      "##먹기": 4579,
      "##진다": 4580,
      "##된다고": 4581,
      "##제를": 4582,
      "##셔보세요": 4583,
      "##오면": 4584,
      "##우면": 4585,
      "##듯이": 4586,
      "##갈까": 4587,
      "##규직": 4588,
      "##..": 4589,
      "##하는지": 4590,
      "좋아해주는": 4591,
      "사랑했": 4592,
      "생각하면": 4593,
      "이별에는": 4594,
      "여자랑": 4595,
      "여자한테": 4596,
      "여자들은": 4597,
      "남자랑": 4598,
      "시간도": 4599,
      "친구의": 4600,
      "만나기로": 4601,
      "자신만": 4602,
      "연애가": 4603,
      "필요하다면": 4604,
      "혼자서": 4605,
      "혼자만": 4606,
      "있어서": 4607,
      "지금이라도": 4608,
      "##이라니": 4609,
      "준비를": 4610,
      "준비하는": 4611,
      "선물은": 4612,
      "찾아가": 4613,
      "아무렇": 4614,
      "힘든가봅니다": 4615,
      "고백했는데": 4616,
      "사귀기": 4617,
      "##해야할까": 4618,
      "들어와": 4619,
      "만들어요": 4620,
      "걱정하지": 4621,
      "##하기는": 4622,
      "남자친구랑": 4623,
      "표현이": 4624,
      "전화를": 4625,
      "아프다": 4626,
      "스트레칭": 4627,
      "보내고": 4628,
      "그만큼": 4629,
      "인생이": 4630,
      "노래방": 4631,
      "달라지": 4632,
      "세상에": 4633,
      "건강에": 4634,
      "관계가": 4635,
      "다르겠지만": 4636,
      "나가세요": 4637,
      "맞는걸까": 4638,
      "살아야": 4639,
      "스스로에게": 4640,
      "보이고": 4641,
      "피곤해": 4642,
      "극복할": 4643,
      "모습을": 4644,
      "솔직하게": 4645,
      "다녀오세요": 4646,
      "따뜻하게": 4647,
      "보고싶다": 4648,
      "바쁜가봐요": 4649,
      "드라이": 4650,
      "친구들이랑": 4651,
      "자격이": 4652,
      "태어난": 4653,
      "귀여워": 4654,
      "병원에": 4655,
      "나눠보세요": 4656,
      "새벽에": 4657,
      "점심시간": 4658,
      "배고파": 4659,
      "누군가를": 4660,
      "공무원": 4661,
      "도시락": 4662,
      "휴대폰": 4663,
      "~~": 4664,
      "가도": 4665,
      "가사": 4666,
      "가는데": 4667,
      "감성": 4668,
      "개강": 4669,
      "거면": 4670,
      "거리를": 4671,
      "경쟁": 4672,
      "곁에": 4673,
      "과정이": 4674,
      "그는": 4675,
      "그대": 4676,
      "기원": 4677,
      "길어": 4678,
      "깨끗": 4679,
      "꽃다": 4680,
      "나보다": 4681,
      "나을까": 4682,
      "나혼자": 4683,
      "남기": 4684,
      "내리": 4685,
      "너를": 4686,
      "너에게": 4687,
      "노후": 4688,
      "놀랐": 4689,
      "늦은": 4690,
      "답장": 4691,
      "대출": 4692,
      "데는": 4693,
      "도움을": 4694,
      "되는지": 4695,
      "드셔보세요": 4696,
      "들어보세요": 4697,
      "떠오": 4698,
      "말하지": 4699,
      "맛집": 4700,
      "맞추": 4701,
      "맞았나봐요": 4702,
      "매달": 4703,
      "멋지": 4704,
      "명절": 4705,
      "모른": 4706,
      "몰래": 4707,
      "못잊": 4708,
      "못해요": 4709,
      "무거": 4710,
      "반가": 4711,
      "받은": 4712,
      "받으면": 4713,
      "발렌": 4714,
      "밝혀": 4715,
      "버릴": 4716,
      "별거": 4717,
      "보다": 4718,
      "봄이": 4719,
      "빠를": 4720,
      "빼빼": 4721,
      "사업": 4722,
      "살기": 4723,
      "삶을": 4724,
      "생겨": 4725,
      "샤워": 4726,
      "성장": 4727,
      "속에": 4728,
      "수다": 4729,
      "술을": 4730,
      "술마": 4731,
      "쉬어도": 4732,
      "심경": 4733,
      "싱숭": 4734,
      "써보세요": 4735,
      "썸은": 4736,
      "썸을": 4737,
      "않나봐요": 4738,
      "않을까": 4739,
      "알다가도": 4740,
      "애들": 4741,
      "어머": 4742,
      "업무": 4743,
      "없지": 4744,
      "없을까": 4745,
      "에휴": 4746,
      "여름": 4747,
      "염색": 4748,
      "왔네": 4749,
      "왔으면": 4750,
      "외모": 4751,
      "외로운": 4752,
      "우리는": 4753,
      "유부": 4754,
      "은연": 4755,
      "의사": 4756,
      "의외": 4757,
      "이미": 4758,
      "이어나": 4759,
      "인내": 4760,
      "일하는": 4761,
      "입을": 4762,
      "있지요": 4763,
      "있더라고요": 4764,
      "잘되": 4765,
      "장소": 4766,
      "좋으면": 4767,
      "중인": 4768,
      "지는": 4769,
      "지치": 4770,
      "차라": 4771,
      "참는": 4772,
      "참아": 4773,
      "콩깍": 4774,
      "통해": 4775,
      "투자": 4776,
      "핑계": 4777,
      "하다": 4778,
      "하던": 4779,
      "해보": 4780,
      "해주는": 4781,
      "회원": 4782,
      "흐르": 4783,
      "힘듭니다": 4784,
      "##기세요": 4785,
      "##식이": 4786,
      "##하대": 4787,
      "##하긴": 4788,
      "##하겠습니다": 4789,
      "##하느라": 4790,
      "##거죠": 4791,
      "##시군요": 4792,
      "##했을": 4793,
      "##나서": 4794,
      "##나고": 4795,
      "##으신가봐요": 4796,
      "##데이": 4797,
      "##가봐": 4798,
      "##가는데": 4799,
      "##어두": 4800,
      "##주려": 4801,
      "##번호": 4802,
      "##까봐": 4803,
      "##이예요": 4804,
      "##보니": 4805,
      "##보내": 4806,
      "##르세요": 4807,
      "##내는": 4808,
      "##내세요": 4809,
      "##겨보세요": 4810,
      "##졌으면": 4811,
      "##순간": 4812,
      "##치지": 4813,
      "##었으면": 4814,
      "##려나": 4815,
      "##려구": 4816,
      "##분이": 4817,
      "##왔는데": 4818,
      "##되면": 4819,
      "##셨네요": 4820,
      "##정도": 4821,
      "##함을": 4822,
      "##터리": 4823,
      "##생숭": 4824,
      "##여자": 4825,
      "##든지": 4826,
      "##받아": 4827,
      "##갑니다": 4828,
      "##테리": 4829,
      "##린다": 4830,
      "##따라": 4831,
      "##하는거": 4832,
      "좋아했던": 4833,
      "마음대로": 4834,
      "이별에": 4835,
      "이별도": 4836,
      "헤어질": 4837,
      "있을까요": 4838,
      "있을지도": 4839,
      "남자들": 4840,
      "##하지는": 4841,
      "이제야": 4842,
      "아니니까요": 4843,
      "연애에": 4844,
      "결혼은": 4845,
      "결혼하면": 4846,
      "정리를": 4847,
      "정리하는": 4848,
      "행복은": 4849,
      "행복을": 4850,
      "조금이라도": 4851,
      "고민임": 4852,
      "짝사랑은": 4853,
      "고백을": 4854,
      "헤어지지": 4855,
      "헤어지면": 4856,
      "해야할까": 4857,
      "그녀에게": 4858,
      "##인가봅니다": 4859,
      "감정의": 4860,
      "가능해요": 4861,
      "여자친구에게": 4862,
      "##하기도": 4863,
      "알아차": 4864,
      "상대에게": 4865,
      "있었으면": 4866,
      "##이었길": 4867,
      "헤어졌네": 4868,
      "표현을": 4869,
      "표현해보세요": 4870,
      "이해가": 4871,
      "이유는": 4872,
      "생겼네": 4873,
      "회사는": 4874,
      "노력하는": 4875,
      "보내는": 4876,
      "않아서": 4877,
      "재미가": 4878,
      "어려워요": 4879,
      "스트레스가": 4880,
      "인생을": 4881,
      "달라진": 4882,
      "답답한": 4883,
      "답답해": 4884,
      "위로봇": 4885,
      "기대세요": 4886,
      "다음부터": 4887,
      "현실을": 4888,
      "현실적인": 4889,
      "마지막으로": 4890,
      "정신차": 4891,
      "습관을": 4892,
      "되었습니다": 4893,
      "다르겠죠": 4894,
      "기다리면": 4895,
      "주말에": 4896,
      "주말이": 4897,
      "사진을": 4898,
      "가끔은": 4899,
      "복잡한": 4900,
      "복잡하겠어요": 4901,
      "마시고": 4902,
      "보이지": 4903,
      "도와줘": 4904,
      "솔직한": 4905,
      "내려놓": 4906,
      "직장에서": 4907,
      "다가가보세요": 4908,
      "배우는": 4909,
      "주변에": 4910,
      "익숙해지": 4911,
      "마련이에요": 4912,
      "마련이죠": 4913,
      "지났네요": 4914,
      "자체가": 4915,
      "고생했어요": 4916,
      "부분이": 4917,
      "바쁘거나": 4918,
      "어울리는": 4919,
      "이러지": 4920,
      "헤아리는": 4921,
      "로맨틱한": 4922,
      "로맨틱하네요": 4923,
      "슬프네요": 4924,
      "타이밍이": 4925,
      "흔들리지": 4926,
      "두근거리": 4927,
      "일어났": 4928,
      "감사합니다": 4929,
      "본인의": 4930,
      "프로포즈": 4931,
      "부탁해보세요": 4932,
      "완벽한": 4933,
      "시어머니가": 4934,
      "현재를": 4935,
      "골라보세요": 4936,
      "오랫동안": 4937,
      "꽃다발": 4938,
      "발렌타": 4939,
      "빼빼로": 4940,
      "싱숭생숭": 4941,
      "차라리": 4942,
      "5개월": 4943,
      "가만": 4944,
      "간단": 4945,
      "감고": 4946,
      "강아지": 4947,
      "같지": 4948,
      "걸리": 4949,
      "걸어": 4950,
      "구멍": 4951,
      "귀가": 4952,
      "그립": 4953,
      "기준": 4954,
      "기숙": 4955,
      "길러": 4956,
      "깨요": 4957,
      "나지": 4958,
      "남은": 4959,
      "남에게": 4960,
      "너도": 4961,
      "느낄": 4962,
      "늘어요": 4963,
      "다리": 4964,
      "다정": 4965,
      "다닐": 4966,
      "단계": 4967,
      "답이": 4968,
      "당했어": 4969,
      "대해서": 4970,
      "되돌": 4971,
      "드릴게요": 4972,
      "들고": 4973,
      "들었어": 4974,
      "딸기": 4975,
      "똑똑": 4976,
      "로또": 4977,
      "막히": 4978,
      "많지": 4979,
      "말이네요": 4980,
      "말해주세요": 4981,
      "맛나게": 4982,
      "매너": 4983,
      "먹어보세요": 4984,
      "멀리": 4985,
      "메모": 4986,
      "모자": 4987,
      "무색": 4988,
      "문신": 4989,
      "뭐라": 4990,
      "뭐할까": 4991,
      "바다": 4992,
      "반응": 4993,
      "받으": 4994,
      "보낼": 4995,
      "봉사": 4996,
      "봤어": 4997,
      "비난": 4998,
      "비정": 4999,
      "비참": 5000,
      "빌려": 5001,
      "사면": 5002,
      "사야지": 5003,
      "사정이": 5004,
      "삼겹": 5005,
      "상상": 5006,
      "새해": 5007,
      "성별": 5008,
      "성향": 5009,
      "센스": 5010,
      "속도": 5011,
      "솔로": 5012,
      "수는": 5013,
      "수면": 5014,
      "순수": 5015,
      "술이": 5016,
      "시키": 5017,
      "시선": 5018,
      "신중": 5019,
      "신뢰": 5020,
      "신나는": 5021,
      "실내": 5022,
      "심리": 5023,
      "싶다고": 5024,
      "싸워": 5025,
      "썸인가": 5026,
      "쓰지": 5027,
      "아플": 5028,
      "악몽": 5029,
      "애교": 5030,
      "어이": 5031,
      "에너": 5032,
      "여우": 5033,
      "연속": 5034,
      "왔습니다": 5035,
      "왤케": 5036,
      "운전": 5037,
      "웃을": 5038,
      "웬수": 5039,
      "위해서": 5040,
      "은퇴": 5041,
      "음식을": 5042,
      "의심": 5043,
      "의욕": 5044,
      "이직": 5045,
      "인턴": 5046,
      "일년": 5047,
      "일만": 5048,
      "읽어보세요": 5049,
      "입어": 5050,
      "잇몸": 5051,
      "있기": 5052,
      "있나봅니다": 5053,
      "자괴": 5054,
      "잘지": 5055,
      "잡아": 5056,
      "잤어": 5057,
      "적금": 5058,
      "정상": 5059,
      "좋았는데": 5060,
      "주기": 5061,
      "중입니다": 5062,
      "줘보세요": 5063,
      "지도": 5064,
      "지진": 5065,
      "지갑": 5066,
      "참견": 5067,
      "찾는": 5068,
      "찾기를": 5069,
      "천재": 5070,
      "체육": 5071,
      "쳐다": 5072,
      "충격": 5073,
      "취해보세요": 5074,
      "치료": 5075,
      "카드": 5076,
      "컨디션": 5077,
      "큰일": 5078,
      "통화": 5079,
      "특별": 5080,
      "파도": 5081,
      "풀어": 5082,
      "하시": 5083,
      "하자고": 5084,
      "학생": 5085,
      "한거": 5086,
      "한숨": 5087,
      "해외": 5088,
      "해봤": 5089,
      "허무": 5090,
      "헛헛": 5091,
      "후에": 5092,
      "후가": 5093,
      "흐르고": 5094,
      "##지기": 5095,
      "##하라고": 5096,
      "##하나봐": 5097,
      "##해하지": 5098,
      "##난다": 5099,
      "##부여": 5100,
      "##시원": 5101,
      "##봅시다": 5102,
      "##달째": 5103,
      "##야할까": 5104,
      "##어주세요": 5105,
      "##주면": 5106,
      "##스는": 5107,
      "##이스": 5108,
      "##이세요": 5109,
      "##걸로": 5110,
      "##라이": 5111,
      "##공평": 5112,
      "##있어": 5113,
      "##치는": 5114,
      "##치가": 5115,
      "##만은": 5116,
      "##었을": 5117,
      "##활동": 5118,
      "##려서": 5119,
      "##분들": 5120,
      "##습관": 5121,
      "##렸나봐요": 5122,
      "##각이": 5123,
      "##정보": 5124,
      "##정을": 5125,
      "##셔요": 5126,
      "##드리고": 5127,
      "##럽게": 5128,
      "##통수": 5129,
      "##0일": 5130,
      "##답을": 5131,
      "##점에서": 5132,
      "##겼는데": 5133,
      "##줬는데": 5134,
      "##센터": 5135,
      "사람인가봐요": 5136,
      "사랑하": 5137,
      "사랑도": 5138,
      "사랑과": 5139,
      "사랑이네요": 5140,
      "사랑했나봐요": 5141,
      "생각했는데": 5142,
      "생각했나봐요": 5143,
      "좋아하는거": 5144,
      "##하고싶어": 5145,
      "오늘이": 5146,
      "오늘따라": 5147,
      "같아서": 5148,
      "만나도": 5149,
      "자신감": 5150,
      "##에게나": 5151,
      "아니죠": 5152,
      "아니지만": 5153,
      "연애로": 5154,
      "모르게": 5155,
      "없어도": 5156,
      "혼자도": 5157,
      "하는건": 5158,
      "하고싶": 5159,
      "결혼할": 5160,
      "결혼해도": 5161,
      "행복해지": 5162,
      "고백할": 5163,
      "고백하는": 5164,
      "고백하면": 5165,
      "짝녀에게": 5166,
      "후회는": 5167,
      "##해야할": 5168,
      "##해야겠지": 5169,
      "헤어지자": 5170,
      "시작해": 5171,
      "해야겠다": 5172,
      "해야할지": 5173,
      "받아보세요": 5174,
      "공부해서": 5175,
      "만들고": 5176,
      "여자친구한테": 5177,
      "하루도": 5178,
      "##다는건": 5179,
      "걱정이": 5180,
      "알아보고": 5181,
      "싫어하는": 5182,
      "관심사를": 5183,
      "기억이": 5184,
      "데이트를": 5185,
      "어떨까": 5186,
      "여행도": 5187,
      "나만의": 5188,
      "물어보는게": 5189,
      "누구든": 5190,
      "머리랑": 5191,
      "전화가": 5192,
      "궁금해요": 5193,
      "많아서": 5194,
      "어디까지": 5195,
      "아프지": 5196,
      "돌아올": 5197,
      "안되네": 5198,
      "생겼으면": 5199,
      "회사와": 5200,
      "노력하겠습니다": 5201,
      "보내주세요": 5202,
      "그러고": 5203,
      "잘못인": 5204,
      "잘못된": 5205,
      "느낌이야": 5206,
      "챙겨드세요": 5207,
      "현실의": 5208,
      "사이에": 5209,
      "세상은": 5210,
      "세상에서": 5211,
      "영화관": 5212,
      "그렇다면": 5213,
      "의미부여": 5214,
      "추천해요": 5215,
      "말해볼까": 5216,
      "아침이": 5217,
      "그리운": 5218,
      "다르겠지요": 5219,
      "사람들은": 5220,
      "좋아하나": 5221,
      "좋아하나봐요": 5222,
      "모든걸": 5223,
      "성공할": 5224,
      "기다리지": 5225,
      "기다리는게": 5226,
      "마시면": 5227,
      "실수를": 5228,
      "가족이": 5229,
      "끝났어": 5230,
      "따뜻할": 5231,
      "아이돌": 5232,
      "힘들었을": 5233,
      "놀러가고": 5234,
      "관리하세요": 5235,
      "나아질": 5236,
      "나아졌": 5237,
      "여유가": 5238,
      "부족한": 5239,
      "##버렸네": 5240,
      "##더라구": 5241,
      "소식이네요": 5242,
      "기회를": 5243,
      "종교가": 5244,
      "하늘을": 5245,
      "##하시군요": 5246,
      "마셔야지": 5247,
      "이번에는": 5248,
      "생각만해도": 5249,
      "2주가": 5250,
      "거기까지인가봐요": 5251,
      "자격증": 5252,
      "까먹었다": 5253,
      "두달이": 5254,
      "불편해": 5255,
      "생기면": 5256,
      "잠수이별": 5257,
      "눈치가": 5258,
      "나타날": 5259,
      "우선순위": 5260,
      "그럼요": 5261,
      "목소리를": 5262,
      "우연히": 5263,
      "괜찮아졌길": 5264,
      "가벼운": 5265,
      "느끼는": 5266,
      "소화제": 5267,
      "긍정적인": 5268,
      "만드는": 5269,
      "미세먼지": 5270,
      "아까워": 5271,
      "유지하는": 5272,
      "이루어": 5273,
      "나쁘지": 5274,
      "단단히": 5275,
      "달콤한": 5276,
      "머릿속": 5277,
      "청첩장": 5278,
      "아무렇지도": 5279,
      "회원정보": 5280,
      "기숙사": 5281,
      "삼겹살": 5282,
      "15": 5283,
      "간사": 5284,
      "강렬": 5285,
      "같다고": 5286,
      "거요": 5287,
      "거랑": 5288,
      "건조": 5289,
      "검색": 5290,
      "것처럼": 5291,
      "겨우": 5292,
      "고칠": 5293,
      "공개": 5294,
      "그저": 5295,
      "그를": 5296,
      "기도": 5297,
      "깨닫": 5298,
      "꿈은": 5299,
      "끝에": 5300,
      "끝도": 5301,
      "끝인": 5302,
      "나네": 5303,
      "난방": 5304,
      "남지": 5305,
      "남는": 5306,
      "남들이": 5307,
      "낭만": 5308,
      "냉정": 5309,
      "너는": 5310,
      "노는": 5311,
      "노트": 5312,
      "놀죠": 5313,
      "니가": 5314,
      "단둘": 5315,
      "달려": 5316,
      "답장이": 5317,
      "대리": 5318,
      "덜할": 5319,
      "덤덤": 5320,
      "동료": 5321,
      "동성": 5322,
      "동호": 5323,
      "됐어요": 5324,
      "되는게": 5325,
      "될지도": 5326,
      "될거예요": 5327,
      "뒤에서": 5328,
      "든든": 5329,
      "들이": 5330,
      "듯합니다": 5331,
      "때로": 5332,
      "떠났": 5333,
      "뛰어": 5334,
      "마셨": 5335,
      "마침": 5336,
      "막혀": 5337,
      "많으면": 5338,
      "말로": 5339,
      "말하고": 5340,
      "말라고": 5341,
      "말해도": 5342,
      "맛이": 5343,
      "맞을까": 5344,
      "맞는지": 5345,
      "맞을거예요": 5346,
      "매주": 5347,
      "멋져요": 5348,
      "멍청": 5349,
      "못했": 5350,
      "무기": 5351,
      "발목": 5352,
      "버티": 5353,
      "변하는": 5354,
      "보게": 5355,
      "보는게": 5356,
      "봐서": 5357,
      "부드": 5358,
      "불공평": 5359,
      "비싼": 5360,
      "빠져": 5361,
      "사내": 5362,
      "사겨": 5363,
      "사는게": 5364,
      "살지": 5365,
      "살이": 5366,
      "살아요": 5367,
      "상의": 5368,
      "새출": 5369,
      "생리": 5370,
      "서툴": 5371,
      "섬유": 5372,
      "성숙": 5373,
      "세워": 5374,
      "셀카": 5375,
      "소리가": 5376,
      "속에서": 5377,
      "술만": 5378,
      "신기": 5379,
      "썸에서": 5380,
      "아기": 5381,
      "아깝": 5382,
      "아쉽": 5383,
      "알기": 5384,
      "앞두고": 5385,
      "애를": 5386,
      "약이": 5387,
      "약을": 5388,
      "어필": 5389,
      "언니": 5390,
      "여드": 5391,
      "올해": 5392,
      "와서": 5393,
      "위기": 5394,
      "유학": 5395,
      "유효": 5396,
      "인스타": 5397,
      "일들이": 5398,
      "일이죠": 5399,
      "일부터": 5400,
      "입지": 5401,
      "입고": 5402,
      "있다": 5403,
      "있겠네요": 5404,
      "잡으세요": 5405,
      "적게": 5406,
      "전혀": 5407,
      "정의": 5408,
      "정류": 5409,
      "정해보세요": 5410,
      "제게": 5411,
      "제주": 5412,
      "조건": 5413,
      "종일": 5414,
      "좋으시": 5415,
      "주식": 5416,
      "줄어": 5417,
      "줄까": 5418,
      "즐겁": 5419,
      "증거를": 5420,
      "지하": 5421,
      "지울": 5422,
      "지냈": 5423,
      "착한": 5424,
      "참지": 5425,
      "참아보세요": 5426,
      "책을": 5427,
      "철벽": 5428,
      "초콜": 5429,
      "최근": 5430,
      "축복": 5431,
      "출퇴": 5432,
      "침대": 5433,
      "코스": 5434,
      "키가": 5435,
      "택배": 5436,
      "트라": 5437,
      "패턴": 5438,
      "포근": 5439,
      "풀렸": 5440,
      "풀어보세요": 5441,
      "피크": 5442,
      "하네요": 5443,
      "하지만": 5444,
      "하려고": 5445,
      "했나": 5446,
      "했어요": 5447,
      "호의": 5448,
      "확신": 5449,
      "회복": 5450,
      "후유증": 5451,
      "흔적": 5452,
      "흘러": 5453,
      "흥미": 5454,
      "##지길": 5455,
      "##하니까요": 5456,
      "##하다는": 5457,
      "##해진": 5458,
      "##시키": 5459,
      "##리러": 5460,
      "##했지만": 5461,
      "##했더니": 5462,
      "##나나": 5463,
      "##았던": 5464,
      "##할거라": 5465,
      "##야하나": 5466,
      "##가도": 5467,
      "##가길": 5468,
      "##자를": 5469,
      "##비가": 5470,
      "##스피": 5471,
      "##인다": 5472,
      "##인인데": 5473,
      "##이래": 5474,
      "##이니까요": 5475,
      "##보아요": 5476,
      "##일차": 5477,
      "##적령": 5478,
      "##적이야": 5479,
      "##랑이": 5480,
      "##을때": 5481,
      "##간다": 5482,
      "##대한": 5483,
      "##치고": 5484,
      "##만한": 5485,
      "##들지": 5486,
      "##었길": 5487,
      "##소음": 5488,
      "##같지": 5489,
      "##란게": 5490,
      "##길이": 5491,
      "##복이": 5492,
      "##되지": 5493,
      "##되길": 5494,
      "##장에": 5495,
      "##담을": 5496,
      "##제가": 5497,
      "##터가": 5498,
      "##수있": 5499,
      "##셔야": 5500,
      "##너무": 5501,
      "##였을": 5502,
      "##였는데": 5503,
      "##우스": 5504,
      "##우마": 5505,
      "##쓰는": 5506,
      "##양이": 5507,
      "##모습": 5508,
      "##침이": 5509,
      "##갈거예요": 5510,
      "##쳤어": 5511,
      "##종일": 5512,
      "사람인데": 5513,
      "좋아했는데": 5514,
      "사랑에는": 5515,
      "생각날": 5516,
      "생각해도": 5517,
      "생각할까": 5518,
      "마음과": 5519,
      "이별하고": 5520,
      "있을지": 5521,
      "여자는": 5522,
      "여자와": 5523,
      "여자들이": 5524,
      "남자한테": 5525,
      "힘들지요": 5526,
      "사람이니까요": 5527,
      "사람이라면": 5528,
      "친구도": 5529,
      "친구라고": 5530,
      "##에서도": 5531,
      "이제라도": 5532,
      "좋을까요": 5533,
      "아니고": 5534,
      "아니네요": 5535,
      "연애하고": 5536,
      "필요하겠어요": 5537,
      "모르는게": 5538,
      "혼자만의": 5539,
      "##인데이": 5540,
      "결혼적령": 5541,
      "정말로": 5542,
      "지금보다": 5543,
      "정리될": 5544,
      "행복해질": 5545,
      "아직은": 5546,
      "준비하고": 5547,
      "선물로": 5548,
      "고백하고": 5549,
      "그럴까": 5550,
      "그럴만": 5551,
      "이야기해도": 5552,
      "##해야죠": 5553,
      "시작하세요": 5554,
      "해야죠": 5555,
      "그녀와": 5556,
      "하나라도": 5557,
      "가능해": 5558,
      "가능합니다": 5559,
      "신경이": 5560,
      "신경을": 5561,
      "하루를": 5562,
      "하루에도": 5563,
      "하지마세요": 5564,
      "상대가": 5565,
      "기억을": 5566,
      "힘들어하지": 5567,
      "언제까지": 5568,
      "있었나요": 5569,
      "물어봐요": 5570,
      "내일도": 5571,
      "오래된": 5572,
      "누구에게나": 5573,
      "표현하는": 5574,
      "이해해": 5575,
      "전화하는": 5576,
      "결정은": 5577,
      "부담스러운": 5578,
      "미련은": 5579,
      "안되는데": 5580,
      "안되겠지": 5581,
      "노력하면": 5582,
      "직접적이든": 5583,
      "그러게요": 5584,
      "않았나봐요": 5585,
      "처음에": 5586,
      "우리가": 5587,
      "축하합니다": 5588,
      "답답하네": 5589,
      "화장하는": 5590,
      "다음에": 5591,
      "생각해봐요": 5592,
      "말씀하세요": 5593,
      "사이에서": 5594,
      "영화보": 5595,
      "힘내지": 5596,
      "그렇죠": 5597,
      "확인해": 5598,
      "말해줘": 5599,
      "만남이었길": 5600,
      "헤어짐을": 5601,
      "아닐까": 5602,
      "모든게": 5603,
      "성공하길": 5604,
      "순간이": 5605,
      "엄마한테": 5606,
      "연습이": 5607,
      "잊혀질": 5608,
      "지내는": 5609,
      "떠나고": 5610,
      "떠나보세요": 5611,
      "무시하는": 5612,
      "별로라고": 5613,
      "아픔의": 5614,
      "아픔을": 5615,
      "정도는": 5616,
      "기다려주세요": 5617,
      "받아들이기": 5618,
      "끝나고": 5619,
      "그분이": 5620,
      "끝났네": 5621,
      "보여요": 5622,
      "보여주세요": 5623,
      "환승은": 5624,
      "운명이": 5625,
      "배우자": 5626,
      "바라지": 5627,
      "바라는": 5628,
      "느껴져": 5629,
      "우울해": 5630,
      "자체로": 5631,
      "카페에서": 5632,
      "어렵네": 5633,
      "아름답": 5634,
      "##하시네요": 5635,
      "시원하게": 5636,
      "당연하죠": 5637,
      "취미생활": 5638,
      "상처받지": 5639,
      "거기까지였나봐요": 5640,
      "헤아리지": 5641,
      "번호를": 5642,
      "태어났": 5643,
      "해주고": 5644,
      "상담을": 5645,
      "##보여요": 5646,
      "고마워": 5647,
      "키우고": 5648,
      "경험이": 5649,
      "버텨보세요": 5650,
      "계획을": 5651,
      "그랬나봐요": 5652,
      "속상해": 5653,
      "없애는": 5654,
      "비교하지": 5655,
      "신혼여행": 5656,
      "연락처를": 5657,
      "미친듯이": 5658,
      "사회생활": 5659,
      "차가워": 5660,
      "결정이었을텐데": 5661,
      "자세히": 5662,
      "중국어": 5663,
      "달달한": 5664,
      "아빠가": 5665,
      "기분전환을": 5666,
      "30분": 5667,
      "간접적이든": 5668,
      "억지로라도": 5669,
      "모른척": 5670,
      "밝혀보세요": 5671,
      "빠를수록": 5672,
      "위로봇입니다": 5673,
      "다음부터는": 5674,
      "발렌타인데이": 5675,
      "가만히": 5676,
      "봉사활동": 5677,
      "주기적으로": 5678,
      "노트북": 5679,
      "동료가": 5680,
      "동호회": 5681,
      "마침표": 5682,
      "무기력": 5683,
      "새출발": 5684,
      "여드름": 5685,
      "유효기간": 5686,
      "제주도": 5687,
      "지하철": 5688,
      "초콜릿": 5689,
      "출퇴근": 5690,
      "트라우마": 5691,
      "피크닉": 5692,
      "후유증이": 5693,
      "1주": 5694,
      "4개월": 5695,
      "ㅎㅎ": 5696,
      "가을": 5697,
      "가려": 5698,
      "가득": 5699,
      "가짐": 5700,
      "가늠": 5701,
      "갈때": 5702,
      "감히": 5703,
      "감당": 5704,
      "갔어": 5705,
      "갔는데": 5706,
      "강습": 5707,
      "갖지": 5708,
      "거둘": 5709,
      "건가요": 5710,
      "걸까요": 5711,
      "것들": 5712,
      "것들이": 5713,
      "고기": 5714,
      "고고": 5715,
      "고장": 5716,
      "곰곰": 5717,
      "공감": 5718,
      "관련": 5719,
      "괴로워": 5720,
      "군침이": 5721,
      "귀를": 5722,
      "금연": 5723,
      "기프": 5724,
      "길에서": 5725,
      "깊게": 5726,
      "깜빡": 5727,
      "꾸며": 5728,
      "끝날": 5729,
      "끝냈": 5730,
      "나빠": 5731,
      "나누": 5732,
      "낫겠지": 5733,
      "낭비": 5734,
      "넘었네": 5735,
      "놀다": 5736,
      "누굴": 5737,
      "눈썹": 5738,
      "느낀": 5739,
      "늙어": 5740,
      "능력을": 5741,
      "늦어": 5742,
      "단순": 5743,
      "단호": 5744,
      "대중": 5745,
      "대우": 5746,
      "대답": 5747,
      "대체": 5748,
      "더러워": 5749,
      "도대": 5750,
      "도망": 5751,
      "도네요": 5752,
      "동감": 5753,
      "되겠지": 5754,
      "득템": 5755,
      "듣는데": 5756,
      "들리": 5757,
      "들을": 5758,
      "들여보세요": 5759,
      "따듯": 5760,
      "때려": 5761,
      "떠보는": 5762,
      "뜻대로": 5763,
      "로봇": 5764,
      "막차": 5765,
      "많다": 5766,
      "많네": 5767,
      "말한": 5768,
      "말해주": 5769,
      "망가": 5770,
      "망했어": 5771,
      "맞지": 5772,
      "맞춤": 5773,
      "매번": 5774,
      "머리는": 5775,
      "먹지": 5776,
      "먹었는데": 5777,
      "며칠": 5778,
      "몇일": 5779,
      "모으": 5780,
      "모아서": 5781,
      "못하면": 5782,
      "못했나봐요": 5783,
      "무작": 5784,
      "무릎": 5785,
      "뭐하": 5786,
      "미끄": 5787,
      "바디": 5788,
      "밤에": 5789,
      "베풀": 5790,
      "변해": 5791,
      "변하지": 5792,
      "보름": 5793,
      "보아요": 5794,
      "보면서": 5795,
      "부지": 5796,
      "부부": 5797,
      "분들": 5798,
      "분노": 5799,
      "불면": 5800,
      "불타": 5801,
      "붙여보세요": 5802,
      "비행": 5803,
      "빌려보세요": 5804,
      "빠른": 5805,
      "빼고": 5806,
      "사수": 5807,
      "사보세요": 5808,
      "살면": 5809,
      "살면서": 5810,
      "삶의": 5811,
      "새학": 5812,
      "서류": 5813,
      "선배가": 5814,
      "성적": 5815,
      "성형": 5816,
      "성덕": 5817,
      "소주": 5818,
      "소유": 5819,
      "소액": 5820,
      "소심해": 5821,
      "속은": 5822,
      "수학": 5823,
      "수염": 5824,
      "수영": 5825,
      "술먹고": 5826,
      "쉬어야": 5827,
      "쉽진": 5828,
      "슈퍼": 5829,
      "스터": 5830,
      "스테": 5831,
      "스팸": 5832,
      "슬픔": 5833,
      "실례": 5834,
      "싫다고": 5835,
      "심어": 5836,
      "심한가봐요": 5837,
      "심하겠네요": 5838,
      "싸움": 5839,
      "쌩얼": 5840,
      "썸일": 5841,
      "썸만": 5842,
      "썼어": 5843,
      "씻고": 5844,
      "아주": 5845,
      "아님": 5846,
      "아련": 5847,
      "아물": 5848,
      "안에": 5849,
      "안가": 5850,
      "않겠어요": 5851,
      "않지만": 5852,
      "알뜰": 5853,
      "알았어": 5854,
      "애석": 5855,
      "애틋": 5856,
      "양해": 5857,
      "얘기를": 5858,
      "어떠": 5859,
      "어둠": 5860,
      "어젯": 5861,
      "없는게": 5862,
      "없겠지": 5863,
      "없지만": 5864,
      "연휴": 5865,
      "예전": 5866,
      "오히": 5867,
      "오락": 5868,
      "오토": 5869,
      "온다": 5870,
      "올까": 5871,
      "옷이": 5872,
      "왕따": 5873,
      "요금": 5874,
      "요구": 5875,
      "욕심": 5876,
      "우린": 5877,
      "운을": 5878,
      "웃어": 5879,
      "웃어보세요": 5880,
      "월요일": 5881,
      "육아": 5882,
      "음식": 5883,
      "의견": 5884,
      "이쁜": 5885,
      "이것": 5886,
      "이뻐": 5887,
      "이벤": 5888,
      "인공": 5889,
      "인상이": 5890,
      "일에": 5891,
      "일단": 5892,
      "잃어": 5893,
      "입이": 5894,
      "자는": 5895,
      "자면": 5896,
      "자취": 5897,
      "자기도": 5898,
      "잘해야": 5899,
      "잘해주": 5900,
      "잠재": 5901,
      "잡는": 5902,
      "전세": 5903,
      "전역": 5904,
      "점이": 5905,
      "점은": 5906,
      "접어두": 5907,
      "정규직": 5908,
      "조용": 5909,
      "조차": 5910,
      "조카": 5911,
      "좋게": 5912,
      "좋고": 5913,
      "좋습니다": 5914,
      "주름": 5915,
      "줄여보세요": 5916,
      "중고": 5917,
      "중2": 5918,
      "증오": 5919,
      "지겨": 5920,
      "지키": 5921,
      "진지": 5922,
      "짜장면": 5923,
      "짧지": 5924,
      "찌질": 5925,
      "찜질": 5926,
      "차근": 5927,
      "차갑": 5928,
      "차례": 5929,
      "차리세요": 5930,
      "차이가": 5931,
      "창업": 5932,
      "책임": 5933,
      "첫인": 5934,
      "청해보세요": 5935,
      "초기": 5936,
      "최대한": 5937,
      "추운": 5938,
      "추석": 5939,
      "치고": 5940,
      "치유": 5941,
      "치열": 5942,
      "치맥": 5943,
      "친절": 5944,
      "키워": 5945,
      "타기": 5946,
      "타던": 5947,
      "타다가": 5948,
      "탈출": 5949,
      "탈퇴": 5950,
      "태어나": 5951,
      "터놓고": 5952,
      "티가": 5953,
      "티를": 5954,
      "파먹기": 5955,
      "평가": 5956,
      "평온": 5957,
      "표시": 5958,
      "푸는": 5959,
      "필름": 5960,
      "하든": 5961,
      "하거나": 5962,
      "학점": 5963,
      "한강": 5964,
      "합격": 5965,
      "해낼": 5966,
      "했다": 5967,
      "허리": 5968,
      "형편": 5969,
      "혼란": 5970,
      "혼술": 5971,
      "화내": 5972,
      "화이트": 5973,
      "휴식을": 5974,
      "희생": 5975,
      "힘껏": 5976,
      "##지죠": 5977,
      "##지말고": 5978,
      "##한잔": 5979,
      "##기업": 5980,
      "##하자": 5981,
      "##하더니": 5982,
      "##거지": 5983,
      "##거같": 5984,
      "##했길": 5985,
      "##했나봐": 5986,
      "##했나봅니다": 5987,
      "##나네": 5988,
      "##다른": 5989,
      "##으려면": 5990,
      "##도는": 5991,
      "##았습니다": 5992,
      "##할거야": 5993,
      "##야겠지": 5994,
      "##야하는데": 5995,
      "##세포": 5996,
      "##로리": 5997,
      "##관리": 5998,
      "##관계": 5999,
      "##심을": 6000,
      "##심으로": 6001,
      "##봐야지": 6002,
      "##트가": 6003,
      "##트업": 6004,
      "##트콘": 6005,
      "##의하세요": 6006,
      "##인건가": 6007,
      "##이크": 6008,
      "##이겠죠": 6009,
      "##라서": 6010,
      "##났어": 6011,
      "##적이죠": 6012,
      "##건데": 6013,
      "##대회": 6014,
      "##졌네": 6015,
      "##졌는데": 6016,
      "##화가": 6017,
      "##마요": 6018,
      "##치기": 6019,
      "##만나": 6020,
      "##들에게": 6021,
      "##었네요": 6022,
      "##었겠네요": 6023,
      "##었습니다": 6024,
      "##청소": 6025,
      "##저리": 6026,
      "##왔습니다": 6027,
      "##되는데": 6028,
      "##되겠네요": 6029,
      "##런하시네요": 6030,
      "##바이": 6031,
      "##바퀴": 6032,
      "##쳐보세요": 6033,
      "##와서": 6034,
      "##와요": 6035,
      "##셨군요": 6036,
      "##겠음": 6037,
      "##겠는데": 6038,
      "##것같아": 6039,
      "##수증": 6040,
      "##수를": 6041,
      "##상담": 6042,
      "##조심": 6043,
      "##버리": 6044,
      "##버려": 6045,
      "##드려보세요": 6046,
      "##매일": 6047,
      "##였던": 6048,
      "##였으면": 6049,
      "##통을": 6050,
      "##우니까": 6051,
      "##형이": 6052,
      "##차근": 6053,
      "##돼서": 6054,
      "##영수증": 6055,
      "##ㅜㅜ": 6056,
      "##끼리": 6057,
      "##교통을": 6058,
      "##됩니다": 6059,
      "##돌아": 6060,
      "##선물": 6061,
      "##표현": 6062,
      "##잖아": 6063,
      "##카드": 6064,
      "사람만": 6065,
      "좋아질": 6066,
      "좋아하지": 6067,
      "사랑하기": 6068,
      "사랑받고": 6069,
      "너무나": 6070,
      "이별했습니다": 6071,
      "연락해서": 6072,
      "힘들고": 6073,
      "힘들지도": 6074,
      "힘들거예요": 6075,
      "시간에": 6076,
      "시간표": 6077,
      "만나길": 6078,
      "만나러": 6079,
      "자신과": 6080,
      "아니랍니다": 6081,
      "괜찮다면": 6082,
      "괜찮지만": 6083,
      "마음이라도": 6084,
      "있는거": 6085,
      "필요한가봐요": 6086,
      "시간이겠네요": 6087,
      "당신에게": 6088,
      "있어야": 6089,
      "정리해보세요": 6090,
      "중요할": 6091,
      "행복할까": 6092,
      "행복하길": 6093,
      "##할까봐": 6094,
      "고민하게": 6095,
      "준비중": 6096,
      "준비하세요": 6097,
      "찾아오": 6098,
      "힘든데": 6099,
      "그럴지도": 6100,
      "서로가": 6101,
      "방법을": 6102,
      "사귀면": 6103,
      "사귀어도": 6104,
      "이야기해": 6105,
      "헤어지세요": 6106,
      "헤어지는게": 6107,
      "시작해도": 6108,
      "들어가": 6109,
      "받아보는": 6110,
      "아닌거": 6111,
      "아닌가봐요": 6112,
      "공부하기": 6113,
      "감정은": 6114,
      "가능할까": 6115,
      "기분은": 6116,
      "힘드신가봐요": 6117,
      "만들려고": 6118,
      "하루에": 6119,
      "하루가": 6120,
      "하루종일": 6121,
      "많은가봐요": 6122,
      "걱정은": 6123,
      "싫어하지": 6124,
      "남자친구한테": 6125,
      "상처는": 6126,
      "언제든": 6127,
      "##스러울": 6128,
      "맛있을": 6129,
      "맛있어요": 6130,
      "여행가": 6131,
      "대화가": 6132,
      "물어보고": 6133,
      "누구도": 6134,
      "않을거예요": 6135,
      "이해할": 6136,
      "결정할": 6137,
      "궁금할": 6138,
      "운동으로": 6139,
      "어디로": 6140,
      "아프고": 6141,
      "돌아가고": 6142,
      "나한테만": 6143,
      "회사에": 6144,
      "회사에는": 6145,
      "노력하고": 6146,
      "그만하고": 6147,
      "다가가는": 6148,
      "생각나고": 6149,
      "지나간": 6150,
      "그러는": 6151,
      "소개시켜": 6152,
      "신경쓰는": 6153,
      "문제는": 6154,
      "문제로": 6155,
      "노래를": 6156,
      "처음에는": 6157,
      "처음부터": 6158,
      "추억은": 6159,
      "추억으로": 6160,
      "기대가": 6161,
      "사이인데": 6162,
      "세상에는": 6163,
      "사랑한다는": 6164,
      "의미가": 6165,
      "의미를": 6166,
      "의미있는": 6167,
      "추천합니다": 6168,
      "추천해줘": 6169,
      "말해봐요": 6170,
      "건강이": 6171,
      "만남이": 6172,
      "만남과": 6173,
      "습관이네요": 6174,
      "상대방도": 6175,
      "1년이": 6176,
      "되었나봐요": 6177,
      "매일매일": 6178,
      "재회를": 6179,
      "나가기": 6180,
      "커피향": 6181,
      "얼마든지": 6182,
      "진심이": 6183,
      "아니라는": 6184,
      "성공을": 6185,
      "연습해보세요": 6186,
      "인정받고": 6187,
      "얼굴이": 6188,
      "##적이고": 6189,
      "좋아할거예요": 6190,
      "보이는": 6191,
      "보이스피": 6192,
      "실수할": 6193,
      "실수하지": 6194,
      "피곤한가봐요": 6195,
      "도와주": 6196,
      "별로야": 6197,
      "학교에서": 6198,
      "그분의": 6199,
      "끝났으면": 6200,
      "##시간이": 6201,
      "아이스크": 6202,
      "배우면": 6203,
      "행동이": 6204,
      "안녕히": 6205,
      "안녕하세요": 6206,
      "익숙해질": 6207,
      "나을지도": 6208,
      "도전해": 6209,
      "무엇을": 6210,
      "스타트업": 6211,
      "집착해": 6212,
      "집착하는": 6213,
      "자존감": 6214,
      "포기하는": 6215,
      "##생활이": 6216,
      "응원해요": 6217,
      "싸우면": 6218,
      "싸우면서": 6219,
      "전남친이": 6220,
      "소식이": 6221,
      "월급이": 6222,
      "잊는다는": 6223,
      "진정으로": 6224,
      "충전하세요": 6225,
      "비밀번호": 6226,
      "약속을": 6227,
      "##하려는": 6228,
      "바쁘면": 6229,
      "사랑할수록": 6230,
      "재미있어요": 6231,
      "당연히": 6232,
      "경우도": 6233,
      "경우가": 6234,
      "안경테": 6235,
      "예민한가봐요": 6236,
      "차분하게": 6237,
      "10년": 6238,
      "집중이": 6239,
      "집중하세요": 6240,
      "최선을": 6241,
      "선생님이": 6242,
      "두근거": 6243,
      "이기적인": 6244,
      "일어날": 6245,
      "올려달라고": 6246,
      "좋아한다고": 6247,
      "귀엽게": 6248,
      "드시고": 6249,
      "피부가": 6250,
      "고쳐쓰는": 6251,
      "괴롭게": 6252,
      "이용해주세요": 6253,
      "퇴근길": 6254,
      "학원을": 6255,
      "견디고": 6256,
      "미래에": 6257,
      "영원한": 6258,
      "선택일거라": 6259,
      "거울을": 6260,
      "기간이": 6261,
      "벗어나세요": 6262,
      "치과에": 6263,
      "걱정되겠네요": 6264,
      "집안일을": 6265,
      "공허함이": 6266,
      "권태기": 6267,
      "남사친이": 6268,
      "놀아줘": 6269,
      "택시비": 6270,
      "##방법을": 6271,
      "지나갔길": 6272,
      "안타깝네요": 6273,
      "심호흡해보세요": 6274,
      "계절이": 6275,
      "다양하게": 6276,
      "말투가": 6277,
      "신고하세요": 6278,
      "현금영수증": 6279,
      "각자의": 6280,
      "두번째": 6281,
      "셀프웨딩": 6282,
      "휴가가": 6283,
      "상관없어요": 6284,
      "고맙다": 6285,
      "부딪혔": 6286,
      "애정표현": 6287,
      "혼자서도": 6288,
      "스트레칭을": 6289,
      "달라지는게": 6290,
      "드라이브": 6291,
      "가사가": 6292,
      "깨끗하게": 6293,
      "멋지게": 6294,
      "무거워": 6295,
      "심경의": 6296,
      "의외로": 6297,
      "두근거리겠어요": 6298,
      "센스있는": 6299,
      "의욕이": 6300,
      "자괴감": 6301,
      "체육대회": 6302,
      "특별한": 6303,
      "부드럽게": 6304,
      "생리통": 6305,
      "정류장에서": 6306,
      "최근에": 6307,
      "흥미를": 6308,
      "가짐에": 6309,
      "곰곰히": 6310,
      "기프트콘": 6311,
      "꾸며보세요": 6312,
      "대중교통을": 6313,
      "도대체": 6314,
      "무작정": 6315,
      "부지런하시네요": 6316,
      "불면증": 6317,
      "비행기": 6318,
      "새학기": 6319,
      "스터디": 6320,
      "양해를": 6321,
      "어젯밤": 6322,
      "오히려": 6323,
      "오락가락": 6324,
      "오토바이": 6325,
      "지겨워": 6326,
      "찜질방": 6327,
      "차근차근": 6328,
      "첫인상": 6329,
      "화이트데이": 6330,
      "보이스피싱": 6331,
      "아이스크림": 6332,
      ".?": 6333,
      "...": 6334,
      "1달": 6335,
      "20": 6336,
      "3달": 6337,
      "3일째": 6338,
      "9년": 6339,
      "가스": 6340,
      "가라": 6341,
      "가볍": 6342,
      "간식": 6343,
      "감수": 6344,
      "감싸": 6345,
      "갚아": 6346,
      "개념": 6347,
      "거는": 6348,
      "거라고": 6349,
      "거르세요": 6350,
      "걸려": 6351,
      "걸린": 6352,
      "것만": 6353,
      "것입니다": 6354,
      "것들을": 6355,
      "격려": 6356,
      "경제": 6357,
      "곳을": 6358,
      "괜한": 6359,
      "괴로": 6360,
      "구분": 6361,
      "구속": 6362,
      "구해보세요": 6363,
      "그가": 6364,
      "긁었어": 6365,
      "금수": 6366,
      "기댈": 6367,
      "길게": 6368,
      "길은": 6369,
      "김치": 6370,
      "꺼내": 6371,
      "꼼꼼": 6372,
      "꿈같": 6373,
      "끄는": 6374,
      "끓여": 6375,
      "끝일": 6376,
      "끝낼": 6377,
      "끝인가": 6378,
      "나날": 6379,
      "나약": 6380,
      "나갔어": 6381,
      "낚시": 6382,
      "남길": 6383,
      "남았나봐요": 6384,
      "내기": 6385,
      "내게": 6386,
      "내내": 6387,
      "너한테": 6388,
      "높아": 6389,
      "눈은": 6390,
      "눈에서": 6391,
      "능력": 6392,
      "늦는": 6393,
      "늦잠": 6394,
      "다짐": 6395,
      "다툼": 6396,
      "단톡": 6397,
      "담긴": 6398,
      "답은": 6399,
      "당분": 6400,
      "대해보세요": 6401,
      "더욱": 6402,
      "돈은": 6403,
      "되기": 6404,
      "되는거": 6405,
      "두셨네요": 6406,
      "뒤숭": 6407,
      "뒤통수": 6408,
      "뒷담": 6409,
      "드리고": 6410,
      "듣기": 6411,
      "들면": 6412,
      "들까": 6413,
      "들려": 6414,
      "들으면": 6415,
      "등을": 6416,
      "등산": 6417,
      "때예요": 6418,
      "떨쳐": 6419,
      "똑같아": 6420,
      "랜선": 6421,
      "리폼": 6422,
      "만에": 6423,
      "말했어": 6424,
      "맘을": 6425,
      "망했다": 6426,
      "맞나": 6427,
      "맞아요": 6428,
      "맞는거": 6429,
      "맡겨보세요": 6430,
      "매력이": 6431,
      "먹으": 6432,
      "먹은": 6433,
      "먹자고": 6434,
      "먹었어": 6435,
      "먼지": 6436,
      "먼지가": 6437,
      "면허": 6438,
      "명품": 6439,
      "모를": 6440,
      "모임": 6441,
      "모쏠": 6442,
      "목이": 6443,
      "몸에": 6444,
      "몸무": 6445,
      "못난": 6446,
      "못참": 6447,
      "못해서": 6448,
      "못하는게": 6449,
      "못했던": 6450,
      "무한": 6451,
      "무관": 6452,
      "무의": 6453,
      "물건": 6454,
      "뭐임": 6455,
      "뭐하는": 6456,
      "미화": 6457,
      "미용": 6458,
      "미칠": 6459,
      "믿으세요": 6460,
      "믿음을": 6461,
      "바지": 6462,
      "바늘": 6463,
      "바르고": 6464,
      "밖에서": 6465,
      "반년": 6466,
      "반갑": 6467,
      "받기": 6468,
      "방문": 6469,
      "배울": 6470,
      "버리": 6471,
      "번씩": 6472,
      "벌고": 6473,
      "베터리": 6474,
      "벽에": 6475,
      "변한": 6476,
      "보단": 6477,
      "보며": 6478,
      "보이네요": 6479,
      "보자고": 6480,
      "복전": 6481,
      "볼게요": 6482,
      "봄은": 6483,
      "봤는데": 6484,
      "부여": 6485,
      "부디": 6486,
      "불금": 6487,
      "비하": 6488,
      "빌어요": 6489,
      "빠졌": 6490,
      "빠지는": 6491,
      "빨래": 6492,
      "뻔했어": 6493,
      "뽑기": 6494,
      "사냐": 6495,
      "사탕": 6496,
      "살찐": 6497,
      "살다보면": 6498,
      "상메": 6499,
      "서툰": 6500,
      "선에서": 6501,
      "설명": 6502,
      "설렜": 6503,
      "세월": 6504,
      "소모": 6505,
      "손에": 6506,
      "손해": 6507,
      "손톱": 6508,
      "수준": 6509,
      "수상": 6510,
      "수업": 6511,
      "술은": 6512,
      "숨막": 6513,
      "슬쩍": 6514,
      "시도": 6515,
      "시골": 6516,
      "식단": 6517,
      "신발": 6518,
      "심장이": 6519,
      "싸웠": 6520,
      "썸인": 6521,
      "쓸쓸": 6522,
      "씁쓸": 6523,
      "아마": 6524,
      "아팠": 6525,
      "안주": 6526,
      "안하지": 6527,
      "않는게": 6528,
      "알지": 6529,
      "알콩": 6530,
      "애기": 6531,
      "양말": 6532,
      "어리": 6533,
      "어렸": 6534,
      "어른": 6535,
      "어깨": 6536,
      "어리게": 6537,
      "없겠지요": 6538,
      "염탐": 6539,
      "옆에서": 6540,
      "예감": 6541,
      "올랐": 6542,
      "옷을": 6543,
      "와닿": 6544,
      "왔나봐요": 6545,
      "왜그": 6546,
      "요리": 6547,
      "웃겨": 6548,
      "유난": 6549,
      "유행": 6550,
      "은행": 6551,
      "이틀": 6552,
      "이모": 6553,
      "일반": 6554,
      "읽씹": 6555,
      "입에": 6556,
      "입어도": 6557,
      "있음": 6558,
      "있으니까": 6559,
      "있으신가봐요": 6560,
      "잊으려고": 6561,
      "자도": 6562,
      "작아": 6563,
      "잔인": 6564,
      "잘자": 6565,
      "잘살": 6566,
      "잘해주세요": 6567,
      "잘하는게": 6568,
      "잘해주는": 6569,
      "쟁취": 6570,
      "적어": 6571,
      "적이": 6572,
      "전기": 6573,
      "전해": 6574,
      "제안": 6575,
      "좋으": 6576,
      "좋지요": 6577,
      "주택": 6578,
      "주차": 6579,
      "주면서": 6580,
      "주제를": 6581,
      "지저": 6582,
      "지낼": 6583,
      "지루": 6584,
      "지옥": 6585,
      "지르고": 6586,
      "진행": 6587,
      "질질": 6588,
      "질문": 6589,
      "짐을": 6590,
      "집앞": 6591,
      "짧게": 6592,
      "찍고": 6593,
      "차이는": 6594,
      "착잡": 6595,
      "참을": 6596,
      "참석": 6597,
      "처럼": 6598,
      "첫눈": 6599,
      "추스": 6600,
      "축의": 6601,
      "층간": 6602,
      "치워": 6603,
      "치매": 6604,
      "친해지": 6605,
      "친해질": 6606,
      "컴퓨": 6607,
      "코가": 6608,
      "타다": 6609,
      "털어": 6610,
      "특징": 6611,
      "틀린": 6612,
      "티내": 6613,
      "편의": 6614,
      "편하고": 6615,
      "편하겠죠": 6616,
      "포장": 6617,
      "표정": 6618,
      "프라이": 6619,
      "피자": 6620,
      "하러": 6621,
      "하다가": 6622,
      "하기도": 6623,
      "하우스": 6624,
      "한가": 6625,
      "한계": 6626,
      "한국": 6627,
      "한켠": 6628,
      "한창": 6629,
      "한다는": 6630,
      "한순간": 6631,
      "할줄": 6632,
      "함부로": 6633,
      "해줄": 6634,
      "해보고": 6635,
      "호칭": 6636,
      "휴가를": 6637,
      "흑역": 6638,
      "##지세요": 6639,
      "##지겠네요": 6640,
      "##한번": 6641,
      "##한건가": 6642,
      "##기지": 6643,
      "##식에": 6644,
      "##식하는": 6645,
      "##하실": 6646,
      "##하겠지": 6647,
      "##하신가봐요": 6648,
      "##게임": 6649,
      "##거겠죠": 6650,
      "##해졌어": 6651,
      "##질이": 6652,
      "##시겠네요": 6653,
      "##증을": 6654,
      "##리하세요": 6655,
      "##했네요": 6656,
      "##다리": 6657,
      "##으려": 6658,
      "##으며": 6659,
      "##서야": 6660,
      "##달콩": 6661,
      "##았네": 6662,
      "##았으면": 6663,
      "##고가": 6664,
      "##데이트": 6665,
      "##주가": 6666,
      "##심한": 6667,
      "##트를": 6668,
      "##레스": 6669,
      "##인걸까": 6670,
      "##걸요": 6671,
      "##르네": 6672,
      "##사에": 6673,
      "##라는게": 6674,
      "##갔네": 6675,
      "##뿐이에요": 6676,
      "##적이네요": 6677,
      "##있지": 6678,
      "##있음": 6679,
      "##있나": 6680,
      "##을까요": 6681,
      "##을때는": 6682,
      "##느냐에": 6683,
      "##냐구": 6684,
      "##었나봐": 6685,
      "##었으니까요": 6686,
      "##왔네": 6687,
      "##유연": 6688,
      "##되기": 6689,
      "##련만": 6690,
      "##살이": 6691,
      "##집니다": 6692,
      "##와의": 6693,
      "##셨나": 6694,
      "##셨겠어요": 6695,
      "##정적인": 6696,
      "##겠다고": 6697,
      "##담해보세요": 6698,
      "##터리가": 6699,
      "##러보세요": 6700,
      "##신가요": 6701,
      "##셔야죠": 6702,
      "##줘야": 6703,
      "##조절": 6704,
      "##조차": 6705,
      "##버시": 6706,
      "##드시": 6707,
      "##드가": 6708,
      "##드립니다": 6709,
      "##오를": 6710,
      "##동산": 6711,
      "##력은": 6712,
      "##였나": 6713,
      "##냈어요": 6714,
      "##우는": 6715,
      "##우니": 6716,
      "##생인데": 6717,
      "##능에": 6718,
      "##받았어": 6719,
      "##두절": 6720,
      "##롭게": 6721,
      "##노래": 6722,
      "##봤어": 6723,
      "##ㅎㅎ": 6724,
      "##힌다": 6725,
      "##카락": 6726,
      "##릅니다": 6727,
      "##김에": 6728,
      "좋아했으면": 6729,
      "사랑해요": 6730,
      "생각으로": 6731,
      "생각해서": 6732,
      "마음만": 6733,
      "마음정": 6734,
      "마음인가봐요": 6735,
      "이별준비": 6736,
      "연락할": 6737,
      "연락오": 6738,
      "연락했는데": 6739,
      "연락두절": 6740,
      "있을게요": 6741,
      "여자도": 6742,
      "남자도": 6743,
      "친구는": 6744,
      "친구네": 6745,
      "친구와": 6746,
      "오늘부터": 6747,
      "만나요": 6748,
      "만나자": 6749,
      "만나는데": 6750,
      "자신으로": 6751,
      "좋을지": 6752,
      "연애의": 6753,
      "연애하는": 6754,
      "연애하면": 6755,
      "연애하는데": 6756,
      "모르겠네": 6757,
      "어떻게해": 6758,
      "어떻게든": 6759,
      "짝남에게": 6760,
      "싶다는": 6761,
      "혼자인": 6762,
      "하는지": 6763,
      "##인데요": 6764,
      "결혼해야": 6765,
      "결혼하는데": 6766,
      "정리하고": 6767,
      "기다렸": 6768,
      "기다림": 6769,
      "짝사랑을": 6770,
      "##이라서": 6771,
      "찾아온": 6772,
      "##보다는": 6773,
      "아무말": 6774,
      "힘든거": 6775,
      "힘든가봐요": 6776,
      "고백은": 6777,
      "후회를": 6778,
      "후회해도": 6779,
      "후회하기": 6780,
      "없는거": 6781,
      "사귀던": 6782,
      "##해야겠다": 6783,
      "헤어지기": 6784,
      "헤어지는": 6785,
      "시작이죠": 6786,
      "시작하기": 6787,
      "들어서": 6788,
      "들어도": 6789,
      "들어줄": 6790,
      "들어올": 6791,
      "들어주세요": 6792,
      "들어왔어": 6793,
      "해야할": 6794,
      "해야돼": 6795,
      "받아야": 6796,
      "아닌가요": 6797,
      "공부할": 6798,
      "가능하면": 6799,
      "가능하겠죠": 6800,
      "여자친구를": 6801,
      "신경써": 6802,
      "걱정할": 6803,
      "걱정된다고": 6804,
      "싫어도": 6805,
      "기억의": 6806,
      "기억에서": 6807,
      "남자친구를": 6808,
      "남자친구에게": 6809,
      "상처도": 6810,
      "여행은": 6811,
      "있었을": 6812,
      "있었는데": 6813,
      "대화로": 6814,
      "대화하는": 6815,
      "카톡이": 6816,
      "카톡을": 6817,
      "카톡으로": 6818,
      "함께한": 6819,
      "함께할": 6820,
      "##이었나봐요": 6821,
      "##이었나봅니다": 6822,
      "물어보면": 6823,
      "누구랑": 6824,
      "머리카락": 6825,
      "전화해보세요": 6826,
      "어디든": 6827,
      "선택할": 6828,
      "선택이길": 6829,
      "한달하고": 6830,
      "돌아가": 6831,
      "미련도": 6832,
      "생겼네요": 6833,
      "보내지": 6834,
      "다가오": 6835,
      "때문일": 6836,
      "인연은": 6837,
      "지나면": 6838,
      "그러게": 6839,
      "재미없어": 6840,
      "어려울": 6841,
      "신경쓰여": 6842,
      "인생이죠": 6843,
      "잘못이": 6844,
      "잘못을": 6845,
      "##해지세요": 6846,
      "상황이네요": 6847,
      "우리집": 6848,
      "중요한데": 6849,
      "추억에": 6850,
      "화장품": 6851,
      "기대를": 6852,
      "기대하지": 6853,
      "현실과": 6854,
      "세상이": 6855,
      "요즘은": 6856,
      "언젠가는": 6857,
      "먹어야겠다": 6858,
      "만남에": 6859,
      "습관이": 6860,
      "어제와": 6861,
      "상대방에": 6862,
      "상대방에게": 6863,
      "1년째": 6864,
      "헤어짐이": 6865,
      "그리울": 6866,
      "그리움": 6867,
      "다르죠": 6868,
      "재회는": 6869,
      "남자애한테": 6870,
      "나가야": 6871,
      "나가볼까": 6872,
      "성공하고": 6873,
      "순간이네요": 6874,
      "순간이었을": 6875,
      "살아가": 6876,
      "인정하고": 6877,
      "인정해주세요": 6878,
      "이별이란": 6879,
      "없을거예요": 6880,
      "잊혀지지": 6881,
      "재밌는": 6882,
      "재밌다": 6883,
      "재밌어": 6884,
      "필요한게": 6885,
      "지내길": 6886,
      "짜증날": 6887,
      "후폭풍은": 6888,
      "연락해볼까": 6889,
      "아픔이": 6890,
      "아픔은": 6891,
      "정도로": 6892,
      "만들어서": 6893,
      "마주쳐보세요": 6894,
      "두려움을": 6895,
      "운명적인": 6896,
      "주변에서": 6897,
      "첫사랑이": 6898,
      "힘들었죠": 6899,
      "게임을": 6900,
      "도전하는": 6901,
      "관리하는": 6902,
      "이겨내세요": 6903,
      "자존감을": 6904,
      "연인은": 6905,
      "연인으로": 6906,
      "일어나는": 6907,
      "일어나서": 6908,
      "좋아해줬으면": 6909,
      "이상형이": 6910,
      "이상형은": 6911,
      "먹으면서": 6912,
      "보고싶네": 6913,
      "생일이네": 6914,
      "싸우는": 6915,
      "어렵죠": 6916,
      "끝내고": 6917,
      "마셔도": 6918,
      "맞춰보세요": 6919,
      "미치겠어": 6920,
      "미치겠습니다": 6921,
      "미치겠네": 6922,
      "즐기면서": 6923,
      "재미있게": 6924,
      "당연한": 6925,
      "받아들일": 6926,
      "가야겠죠": 6927,
      "미워하지": 6928,
      "예민한": 6929,
      "두려워하지": 6930,
      "그대로의": 6931,
      "기본이": 6932,
      "서운해": 6933,
      "슬프게": 6934,
      "어쩔수": 6935,
      "부담스러워하지": 6936,
      "사과하세요": 6937,
      "자유로워": 6938,
      "적응해야": 6939,
      "고마운": 6940,
      "삭제하세요": 6941,
      "오빠가": 6942,
      "좋았으면": 6943,
      "놀이동산": 6944,
      "당황했겠어요": 6945,
      "버텨요": 6946,
      "보냈어": 6947,
      "프로필": 6948,
      "좋아한다는": 6949,
      "아름다워요": 6950,
      "과정이에요": 6951,
      "드시면": 6952,
      "바빠서": 6953,
      "바빠도": 6954,
      "바꿔보세요": 6955,
      "존재를": 6956,
      "목소리": 6957,
      "바뀌게": 6958,
      "배고프": 6959,
      "상사가": 6960,
      "아는데도": 6961,
      "애매하네요": 6962,
      "이름이": 6963,
      "지우고": 6964,
      "퇴근하고": 6965,
      "피해를": 6966,
      "좋을텐데요": 6967,
      "거절의": 6968,
      "고치고": 6969,
      "사라질": 6970,
      "안좋은": 6971,
      "마주치는": 6972,
      "가까운": 6973,
      "차별해": 6974,
      "쓰레기야": 6975,
      "권태기가": 6976,
      "미세먼지가": 6977,
      "선톡을": 6978,
      "시계는": 6979,
      "여사친이": 6980,
      "정확하게": 6981,
      "평소에": 6982,
      "잊혀지기도": 6983,
      "심호흡을": 6984,
      "소원을": 6985,
      "가치관이": 6986,
      "바꿀까": 6987,
      "외국인인데": 6988,
      "마실까": 6989,
      "물리적": 6990,
      "행운을": 6991,
      "필요하다면요": 6992,
      "기원합니다": 6993,
      "떠오르는": 6994,
      "맞추세요": 6995,
      "유부남": 6996,
      "이어나가": 6997,
      "콩깍지가": 6998,
      "##테리어": 6999,
      "달라진게": 7000,
      "걸리겠지만": 7001,
      "반응이": 7002,
      "비난하지": 7003,
      "속도를": 7004,
      "신중하게": 7005,
      "큰일이네요": 7006,
      "한숨만": 7007,
      "해외여행": 7008,
      "하고싶었던": 7009,
      "나아졌길": 7010,
      "강렬한": 7011,
      "단둘이": 7012,
      "달려있": 7013,
      "사겨도": 7014,
      "서툴러": 7015,
      "섬유유연": 7016,
      "어필해보세요": 7017,
      "주식으로": 7018,
      "줄어들": 7019,
      "낭비하지": 7020,
      "맞춤법": 7021,
      "미끄러": 7022,
      "서류에서": 7023,
      "수학여행": 7024,
      "잃어버렸어": 7025,
      "차갑게": 7026,
      "....": 7027,
      "금수저": 7028,
      "당분간": 7029,
      "뒤숭숭": 7030,
      "뒷담화": 7031,
      "몸무게": 7032,
      "못참고": 7033,
      "알콩달콩": 7034,
      "유난히": 7035,
      "좋으련만": 7036,
      "지저분": 7037,
      "축의금": 7038,
      "층간소음": 7039,
      "프라이버시": 7040,
      "흑역사": 7041,
      "섬유유연제": 7042,
      ",,": 7043,
      "12": 7044,
      "2개월": 7045,
      "3초": 7046,
      "AS": 7047,
      "as": 7048,
      "가게": 7049,
      "가네요": 7050,
      "가봐요": 7051,
      "가는게": 7052,
      "가려고": 7053,
      "가리세요": 7054,
      "가기로": 7055,
      "각질": 7056,
      "간대": 7057,
      "간직": 7058,
      "간만에": 7059,
      "갈수록": 7060,
      "감출": 7061,
      "감동": 7062,
      "감으세요": 7063,
      "감각이": 7064,
      "갑니다": 7065,
      "강요": 7066,
      "강제": 7067,
      "갖게": 7068,
      "같음": 7069,
      "같다": 7070,
      "개시": 7071,
      "객관": 7072,
      "갠톡": 7073,
      "걔는": 7074,
      "거겠지": 7075,
      "건들지": 7076,
      "걷고": 7077,
      "걷길": 7078,
      "걸음을": 7079,
      "것이죠": 7080,
      "겠지만": 7081,
      "계기가": 7082,
      "고독": 7083,
      "고시원": 7084,
      "고양이": 7085,
      "골프": 7086,
      "곳이죠": 7087,
      "곳까지": 7088,
      "공간": 7089,
      "공유": 7090,
      "과연": 7091,
      "구별": 7092,
      "구워": 7093,
      "구두": 7094,
      "군인": 7095,
      "귀로": 7096,
      "그걸": 7097,
      "그때": 7098,
      "그땐": 7099,
      "그린": 7100,
      "그것도": 7101,
      "근데": 7102,
      "글자": 7103,
      "글쎄": 7104,
      "기르고": 7105,
      "길지": 7106,
      "길면": 7107,
      "깎아": 7108,
      "꼬박": 7109,
      "꼰대": 7110,
      "꼼수를": 7111,
      "꽃길": 7112,
      "꾹꾹": 7113,
      "끈을": 7114,
      "끊겼어": 7115,
      "나나": 7116,
      "나니": 7117,
      "나야": 7118,
      "나는데": 7119,
      "나겠네요": 7120,
      "나갈거예요": 7121,
      "날이네요": 7122,
      "남과": 7123,
      "남들": 7124,
      "남이에요": 7125,
      "남이니": 7126,
      "낮잠": 7127,
      "낳을": 7128,
      "내면": 7129,
      "내서": 7130,
      "냉면": 7131,
      "너가": 7132,
      "너의": 7133,
      "넓으신가봐요": 7134,
      "넘었는데": 7135,
      "넣을": 7136,
      "노려": 7137,
      "놀까": 7138,
      "농구": 7139,
      "농담": 7140,
      "높겠네요": 7141,
      "놓으세요": 7142,
      "놔둬": 7143,
      "누나": 7144,
      "누락": 7145,
      "눈높": 7146,
      "늦었어요": 7147,
      "다듬": 7148,
      "다칠": 7149,
      "다하세요": 7150,
      "다리가": 7151,
      "다릅니다": 7152,
      "단수": 7153,
      "단체": 7154,
      "단맛": 7155,
      "달라요": 7156,
      "닮은": 7157,
      "답정": 7158,
      "당한": 7159,
      "당첨": 7160,
      "대피": 7161,
      "대수": 7162,
      "대충": 7163,
      "대기업": 7164,
      "대청소": 7165,
      "덜어보세요": 7166,
      "데가": 7167,
      "독서": 7168,
      "독이": 7169,
      "돌면": 7170,
      "돌려": 7171,
      "돌리는": 7172,
      "동영": 7173,
      "되짚": 7174,
      "되어요": 7175,
      "되려고": 7176,
      "되려면": 7177,
      "된다고": 7178,
      "두푼": 7179,
      "두세요": 7180,
      "뒤에": 7181,
      "뒷감": 7182,
      "뒹굴": 7183,
      "드릴": 7184,
      "드려보세요": 7185,
      "드려요": 7186,
      "드립니다": 7187,
      "들었겠네요": 7188,
      "땀을": 7189,
      "때요": 7190,
      "때죠": 7191,
      "때매": 7192,
      "때부터": 7193,
      "떠날": 7194,
      "떠올": 7195,
      "떨린다": 7196,
      "또한": 7197,
      "똑같": 7198,
      "똥차": 7199,
      "뜨겁": 7200,
      "띄는": 7201,
      "레시": 7202,
      "롱디": 7203,
      "리드": 7204,
      "마중": 7205,
      "마른": 7206,
      "막막": 7207,
      "막힌다": 7208,
      "만화": 7209,
      "만지지": 7210,
      "많으시": 7211,
      "말걸": 7212,
      "말만": 7213,
      "말해서": 7214,
      "맘처럼": 7215,
      "망함": 7216,
      "망설": 7217,
      "맞아": 7218,
      "맞으면": 7219,
      "맡기세요": 7220,
      "매력을": 7221,
      "먹먹": 7222,
      "먹는데": 7223,
      "먹어도": 7224,
      "먹거나": 7225,
      "멈춰": 7226,
      "멋져": 7227,
      "면역": 7228,
      "명상을": 7229,
      "목적": 7230,
      "몰려": 7231,
      "몸에는": 7232,
      "못자": 7233,
      "무조": 7234,
      "무모": 7235,
      "무언": 7236,
      "문화": 7237,
      "물가": 7238,
      "물이": 7239,
      "뭐지": 7240,
      "뭐해": 7241,
      "뭐로": 7242,
      "뭐하면": 7243,
      "뭐하나": 7244,
      "뭘로": 7245,
      "미팅": 7246,
      "미루": 7247,
      "믿지": 7248,
      "믿고": 7249,
      "믿어": 7250,
      "밀려": 7251,
      "밀어보세요": 7252,
      "바쁠": 7253,
      "바꿨": 7254,
      "반한": 7255,
      "반에": 7256,
      "반장": 7257,
      "받으세요": 7258,
      "발견": 7259,
      "밥을": 7260,
      "방금": 7261,
      "배달": 7262,
      "배신": 7263,
      "배울까": 7264,
      "백업": 7265,
      "버는": 7266,
      "버릇": 7267,
      "버리는": 7268,
      "벅찰": 7269,
      "베트": 7270,
      "베프": 7271,
      "변신": 7272,
      "변해요": 7273,
      "병신": 7274,
      "보듬": 7275,
      "보란": 7276,
      "보신": 7277,
      "보기로": 7278,
      "보다보면": 7279,
      "보답을": 7280,
      "본받": 7281,
      "봐주": 7282,
      "봤네": 7283,
      "부질": 7284,
      "부르": 7285,
      "분담해보세요": 7286,
      "불가": 7287,
      "불만": 7288,
      "불효": 7289,
      "브랜": 7290,
      "블록": 7291,
      "비워": 7292,
      "비세요": 7293,
      "빌어": 7294,
      "빠지면": 7295,
      "뻑뻑": 7296,
      "뿌린": 7297,
      "사도": 7298,
      "사먹": 7299,
      "사줘": 7300,
      "사전": 7301,
      "사춘": 7302,
      "사표": 7303,
      "사생활이": 7304,
      "살쪄": 7305,
      "상종": 7306,
      "새신": 7307,
      "샌드": 7308,
      "생생": 7309,
      "서점": 7310,
      "선풍": 7311,
      "설득": 7312,
      "성적이": 7313,
      "세달": 7314,
      "세어": 7315,
      "세우": 7316,
      "소름": 7317,
      "소리를": 7318,
      "소소한": 7319,
      "속박": 7320,
      "속이는": 7321,
      "속시원": 7322,
      "손편": 7323,
      "손가락": 7324,
      "수건": 7325,
      "수능": 7326,
      "술한잔": 7327,
      "승진": 7328,
      "시려": 7329,
      "식습관": 7330,
      "실천": 7331,
      "실행": 7332,
      "실패": 7333,
      "싫어요": 7334,
      "심해지는": 7335,
      "심심해": 7336,
      "싶으면": 7337,
      "싸운": 7338,
      "싸웠어": 7339,
      "쌓여": 7340,
      "썸도": 7341,
      "쓰게": 7342,
      "쓰일": 7343,
      "쓰려고": 7344,
      "쓰면서": 7345,
      "쓰이는": 7346,
      "아부": 7347,
      "아울": 7348,
      "아는거": 7349,
      "안부": 7350,
      "안할": 7351,
      "안고": 7352,
      "안될": 7353,
      "안맞": 7354,
      "안부를": 7355,
      "안받아": 7356,
      "않겠네요": 7357,
      "않지요": 7358,
      "알까": 7359,
      "알겠어": 7360,
      "애의": 7361,
      "애인": 7362,
      "애프": 7363,
      "액정": 7364,
      "어흥": 7365,
      "없고": 7366,
      "없지요": 7367,
      "없으니까요": 7368,
      "없답니다": 7369,
      "엇갈": 7370,
      "엠티": 7371,
      "여쭤": 7372,
      "역할": 7373,
      "열어": 7374,
      "열흘": 7375,
      "영어": 7376,
      "영양": 7377,
      "예비": 7378,
      "예약": 7379,
      "예상": 7380,
      "예능": 7381,
      "오길": 7382,
      "오려": 7383,
      "오바": 7384,
      "오셨": 7385,
      "오라고": 7386,
      "오니까": 7387,
      "오디션": 7388,
      "올거예요": 7389,
      "옳은": 7390,
      "옷이요": 7391,
      "와인": 7392,
      "와플": 7393,
      "왠지": 7394,
      "외부": 7395,
      "외출": 7396,
      "욕해": 7397,
      "욕하고": 7398,
      "우정이": 7399,
      "운이": 7400,
      "울고": 7401,
      "웃는": 7402,
      "웃음": 7403,
      "웃으면서": 7404,
      "원인": 7405,
      "원치": 7406,
      "원동": 7407,
      "원한다면": 7408,
      "월세": 7409,
      "웨딩": 7410,
      "웹툰": 7411,
      "으아": 7412,
      "음료": 7413,
      "의심해": 7414,
      "의식하는": 7415,
      "이력": 7416,
      "이끌": 7417,
      "이왕": 7418,
      "이사를": 7419,
      "인지": 7420,
      "인터": 7421,
      "인상": 7422,
      "인맥": 7423,
      "인테리어": 7424,
      "일기": 7425,
      "일부": 7426,
      "일시": 7427,
      "일인": 7428,
      "일방": 7429,
      "일인지": 7430,
      "일하면서": 7431,
      "일요일": 7432,
      "읽어": 7433,
      "임용": 7434,
      "입학": 7435,
      "입냄": 7436,
      "입으세요": 7437,
      "있대": 7438,
      "있겠다": 7439,
      "있거나": 7440,
      "있으세요": 7441,
      "있군요": 7442,
      "있답니다": 7443,
      "있냐고": 7444,
      "잊기": 7445,
      "자장": 7446,
      "자야지": 7447,
      "자다가": 7448,
      "자장면": 7449,
      "작동": 7450,
      "잔소": 7451,
      "잘라": 7452,
      "잘하면": 7453,
      "잠들": 7454,
      "잡념": 7455,
      "잡아보세요": 7456,
      "장학": 7457,
      "장갑": 7458,
      "저마다": 7459,
      "전과": 7460,
      "전학": 7461,
      "전하지": 7462,
      "절친": 7463,
      "접는게": 7464,
      "접어야": 7465,
      "정장": 7466,
      "정정": 7467,
      "정해져": 7468,
      "제정": 7469,
      "조가": 7470,
      "졸린": 7471,
      "종지": 7472,
      "좋음": 7473,
      "좋긴": 7474,
      "좋네요": 7475,
      "좋대요": 7476,
      "좌절": 7477,
      "죄가": 7478,
      "주워": 7479,
      "주량": 7480,
      "주의하세요": 7481,
      "주저리": 7482,
      "준다면": 7483,
      "즐겨": 7484,
      "즐기는": 7485,
      "증거": 7486,
      "증명": 7487,
      "지적": 7488,
      "지친": 7489,
      "지각": 7490,
      "지극": 7491,
      "지속": 7492,
      "지낸": 7493,
      "지압": 7494,
      "지웠어": 7495,
      "직업": 7496,
      "직전": 7497,
      "진리": 7498,
      "질려": 7499,
      "질린": 7500,
      "질러보세요": 7501,
      "짠하고": 7502,
      "짧죠": 7503,
      "찍는": 7504,
      "찍어": 7505,
      "찢어": 7506,
      "차인": 7507,
      "차였는데": 7508,
      "참다": 7509,
      "참았어": 7510,
      "채워질": 7511,
      "챙기세요": 7512,
      "청결": 7513,
      "청춘": 7514,
      "최저": 7515,
      "최신": 7516,
      "축제": 7517,
      "출발": 7518,
      "춥네": 7519,
      "친척": 7520,
      "친해지는": 7521,
      "침묵": 7522,
      "커서": 7523,
      "케익": 7524,
      "케이스": 7525,
      "킁킁": 7526,
      "키울": 7527,
      "타나": 7528,
      "타인": 7529,
      "타러": 7530,
      "탈모": 7531,
      "태연": 7532,
      "터지": 7533,
      "터질": 7534,
      "토닥": 7535,
      "톡이": 7536,
      "틀리는": 7537,
      "팍팍": 7538,
      "패션": 7539,
      "포맷": 7540,
      "포기가": 7541,
      "폭식": 7542,
      "피로": 7543,
      "피하는": 7544,
      "필기": 7545,
      "필수": 7546,
      "하아": 7547,
      "하지도": 7548,
      "하니까요": 7549,
      "하다니": 7550,
      "하느냐에": 7551,
      "학벌": 7552,
      "한약": 7553,
      "한푼": 7554,
      "한답니다": 7555,
      "한심해": 7556,
      "한바퀴": 7557,
      "할지": 7558,
      "할까요": 7559,
      "합리": 7560,
      "해로": 7561,
      "해준": 7562,
      "해드릴게요": 7563,
      "해줄까": 7564,
      "했네": 7565,
      "허락": 7566,
      "허리가": 7567,
      "현타": 7568,
      "호랑이": 7569,
      "혼수": 7570,
      "확률": 7571,
      "환기": 7572,
      "황당": 7573,
      "회의": 7574,
      "훔쳐": 7575,
      "휴학": 7576,
      "흐른": 7577,
      "흐르는": 7578,
      "흘려보세요": 7579,
      "흘러가": 7580,
      "##지못": 7581,
      "##지우": 7582,
      "##지네요": 7583,
      "##지마세요": 7584,
      "##지능에": 7585,
      "##한건": 7586,
      "##한가봅니다": 7587,
      "##기에": 7588,
      "##는건": 7589,
      "##하진": 7590,
      "##하며": 7591,
      "##하나봐요": 7592,
      "##하기가": 7593,
      "##에만": 7594,
      "##해가": 7595,
      "##해봐도": 7596,
      "##질뻔": 7597,
      "##시나봐요": 7598,
      "##리필": 7599,
      "##리겠어요": 7600,
      "##했나": 7601,
      "##했다면": 7602,
      "##했다고": 7603,
      "##했을까": 7604,
      "##다는게": 7605,
      "##할까요": 7606,
      "##야해": 7607,
      "##야해요": 7608,
      "##야겠어": 7609,
      "##야겠죠": 7610,
      "##고있": 7611,
      "##아리": 7612,
      "##아가": 7613,
      "##아빠": 7614,
      "##가의": 7615,
      "##로그": 7616,
      "##어진": 7617,
      "##어가네": 7618,
      "##어두세요": 7619,
      "##트롤": 7620,
      "##스트": 7621,
      "##이너": 7622,
      "##이니까": 7623,
      "##져서": 7624,
      "##보네": 7625,
      "##보이네요": 7626,
      "##보려고": 7627,
      "##걸음": 7628,
      "##은것": 7629,
      "##르기": 7630,
      "##라니": 7631,
      "##라네": 7632,
      "##라이트": 7633,
      "##문이": 7634,
      "##문을": 7635,
      "##뜨리기": 7636,
      "##공원": 7637,
      "##났네": 7638,
      "##적이에요": 7639,
      "##있습니다": 7640,
      "##건강": 7641,
      "##대는": 7642,
      "##졌어요": 7643,
      "##마자": 7644,
      "##절한": 7645,
      "##렵니다": 7646,
      "##왔다": 7647,
      "##왔으면": 7648,
      "##없네": 7649,
      "##되어야": 7650,
      "##명한": 7651,
      "##그만": 7652,
      "##런지": 7653,
      "##꺼야": 7654,
      "##구를": 7655,
      "##구경": 7656,
      "##셨나요": 7657,
      "##겠대": 7658,
      "##함에": 7659,
      "##수업": 7660,
      "##운데": 7661,
      "##버린": 7662,
      "##버리는": 7663,
      "##드네": 7664,
      "##드리는": 7665,
      "##오래": 7666,
      "##중입니다": 7667,
      "##력에": 7668,
      "##였네": 7669,
      "##였나요": 7670,
      "##냈어": 7671,
      "##처리": 7672,
      "##생각": 7673,
      "##여친": 7674,
      "##ㅋㅋ": 7675,
      "##름이": 7676,
      "##원해보세요": 7677,
      "##00일": 7678,
      "##받는": 7679,
      "##받으세요": 7680,
      "##물을": 7681,
      "##텐대요": 7682,
      "##성이에요": 7683,
      "##웠을": 7684,
      "##테니": 7685,
      "##테니까요": 7686,
      "##양말": 7687,
      "##온다": 7688,
      "##체적으로": 7689,
      "##속에": 7690,
      "##밖은": 7691,
      "##맛이": 7692,
      "##티콘": 7693,
      "##실거예요": 7694,
      "##긴다": 7695,
      "##줬더니": 7696,
      "##렀어": 7697,
      "##선을": 7698,
      "##끄러워": 7699,
      "##봤는데": 7700,
      "##위치": 7701,
      "##랬다": 7702,
      "##림을": 7703,
      "##향을": 7704,
      "##새가": 7705,
      "##칼로리": 7706,
      "##꼬박": 7707,
      "##뒀나봐요": 7708,
      "##하는건": 7709,
      "사람인": 7710,
      "사람하고": 7711,
      "좋아서": 7712,
      "좋아지는": 7713,
      "좋아지고": 7714,
      "사랑니": 7715,
      "사랑이에요": 7716,
      "사랑할까": 7717,
      "사랑이죠": 7718,
      "사랑인지": 7719,
      "사랑스러운": 7720,
      "사랑이라는": 7721,
      "사랑하니까": 7722,
      "생각도": 7723,
      "생각하게": 7724,
      "생각이네요": 7725,
      "생각들을": 7726,
      "마음에서": 7727,
      "너무너무": 7728,
      "이별할": 7729,
      "이별하는": 7730,
      "연락도": 7731,
      "연락할까": 7732,
      "연락하는게": 7733,
      "연락이라도": 7734,
      "연락왔어": 7735,
      "연락하라고": 7736,
      "여자로": 7737,
      "여자에게": 7738,
      "남자의": 7739,
      "남자에게": 7740,
      "남자입니다": 7741,
      "남자분들": 7742,
      "힘들까": 7743,
      "힘들겠죠": 7744,
      "힘들지만": 7745,
      "좋은거": 7746,
      "시간내서": 7747,
      "사람이다": 7748,
      "사람이야": 7749,
      "친구인데": 7750,
      "친구라면": 7751,
      "싶어하는": 7752,
      "오늘이에요": 7753,
      "자신은": 7754,
      "이제서야": 7755,
      "좋을거": 7756,
      "아니지": 7757,
      "아니네": 7758,
      "아니길": 7759,
      "괜찮다": 7760,
      "괜찮길": 7761,
      "괜찮겠지": 7762,
      "마음이랑": 7763,
      "연애중": 7764,
      "연애세포": 7765,
      "있는걸까": 7766,
      "필요했": 7767,
      "필요하지": 7768,
      "시간이었": 7769,
      "시간이네요": 7770,
      "없어졌어": 7771,
      "당신만이": 7772,
      "혼자를": 7773,
      "혼자해도": 7774,
      "결혼을": 7775,
      "결혼하고": 7776,
      "결혼하기": 7777,
      "결혼준비": 7778,
      "지금의": 7779,
      "지금부터": 7780,
      "##들이랑": 7781,
      "정리해": 7782,
      "정리하세요": 7783,
      "기다리세요": 7784,
      "기다릴게요": 7785,
      "그런지": 7786,
      "그런가": 7787,
      "행복하세요": 7788,
      "고민이죠": 7789,
      "고민하느라": 7790,
      "아직이라면": 7791,
      "준비할": 7792,
      "준비하기는": 7793,
      "준비하느라": 7794,
      "선물하면": 7795,
      "선물이네요": 7796,
      "찾아봐요": 7797,
      "찾아가는": 7798,
      "찾아오는": 7799,
      "고백하세요": 7800,
      "고백하는게": 7801,
      "짝녀를": 7802,
      "후회해": 7803,
      "후회만": 7804,
      "후회하는": 7805,
      "후회할까": 7806,
      "없는지": 7807,
      "없는걸까": 7808,
      "방법도": 7809,
      "사귀어": 7810,
      "이야기하는": 7811,
      "이야기하고": 7812,
      "##해야하는": 7813,
      "##해야할지": 7814,
      "시작할": 7815,
      "들어가서": 7816,
      "해야겠지": 7817,
      "해야겠네": 7818,
      "그녀도": 7819,
      "하나죠": 7820,
      "공부하면": 7821,
      "공부하세요": 7822,
      "공부해야지": 7823,
      "감정기": 7824,
      "가능하죠": 7825,
      "가능하다고": 7826,
      "가능한가": 7827,
      "힘드니까요": 7828,
      "힘드시겠어요": 7829,
      "만들기": 7830,
      "만들었어요": 7831,
      "이상적인": 7832,
      "하루는": 7833,
      "##다는걸": 7834,
      "많은가": 7835,
      "많은걸": 7836,
      "하지말고": 7837,
      "걱정이야": 7838,
      "걱정하지마세요": 7839,
      "##하기로": 7840,
      "알아볼": 7841,
      "알아보는": 7842,
      "알아두세요": 7843,
      "사랑하는지는": 7844,
      "관심사에": 7845,
      "기억에": 7846,
      "기억해": 7847,
      "기억은": 7848,
      "데이트가": 7849,
      "맛있다": 7850,
      "맛있어": 7851,
      "여행이네요": 7852,
      "있었어": 7853,
      "있었을지도": 7854,
      "대화의": 7855,
      "함께도": 7856,
      "함께하고": 7857,
      "##이었어": 7858,
      "물어봐도": 7859,
      "내일이": 7860,
      "내일을": 7861,
      "오래오래": 7862,
      "누구야": 7863,
      "표현하지": 7864,
      "이해못": 7865,
      "이해를": 7866,
      "이해해보세요": 7867,
      "이해하고": 7868,
      "이해하기": 7869,
      "여친에게": 7870,
      "결정했나봐요": 7871,
      "운동할": 7872,
      "운동해보세요": 7873,
      "운동하세요": 7874,
      "이유로": 7875,
      "선택이": 7876,
      "선택이었을": 7877,
      "아프게": 7878,
      "돌아서": 7879,
      "미련을": 7880,
      "##했던거": 7881,
      "생겼어요": 7882,
      "생겼을지도": 7883,
      "보내시길": 7884,
      "직접적으로": 7885,
      "그만둬": 7886,
      "따라가": 7887,
      "지나가": 7888,
      "어떡함": 7889,
      "어떡하죠": 7890,
      "않았길": 7891,
      "괜찮아지고": 7892,
      "신경쓰면": 7893,
      "신경쓰고": 7894,
      "신경쓰이": 7895,
      "스트레스야": 7896,
      "스트레스의": 7897,
      "스트레스를": 7898,
      "남친이랑": 7899,
      "쉽지가": 7900,
      "인생의": 7901,
      "인생에서": 7902,
      "잘못입니다": 7903,
      "##해지네": 7904,
      "##해지길": 7905,
      "문제죠": 7906,
      "문제네요": 7907,
      "조심히": 7908,
      "노래는": 7909,
      "나이에": 7910,
      "나이테": 7911,
      "달라지지": 7912,
      "달라져요": 7913,
      "만났던": 7914,
      "만났든": 7915,
      "변화도": 7916,
      "변화시켜": 7917,
      "축하해주세요": 7918,
      "확실해지면": 7919,
      "결국엔": 7920,
      "답답할": 7921,
      "위로를": 7922,
      "챙겨주면": 7923,
      "챙겨드시": 7924,
      "화장이": 7925,
      "말씀드려보세요": 7926,
      "사이로": 7927,
      "잊어가는": 7928,
      "그렇겠죠": 7929,
      "추천해": 7930,
      "확인하는": 7931,
      "먹어야": 7932,
      "아침부터": 7933,
      "정신이": 7934,
      "정신없이": 7935,
      "정신건강": 7936,
      "건강을": 7937,
      "건강하게": 7938,
      "건강습관": 7939,
      "관계의": 7940,
      "나쁜거예요": 7941,
      "만남은": 7942,
      "만남이네요": 7943,
      "습관처럼": 7944,
      "상대방의": 7945,
      "거라면": 7946,
      "되었을": 7947,
      "되었네": 7948,
      "되었길": 7949,
      "헤어짐은": 7950,
      "다르지": 7951,
      "다르게": 7952,
      "어느새": 7953,
      "어느정도": 7954,
      "##사람친구": 7955,
      "부모님을": 7956,
      "나가면": 7957,
      "떨어뜨": 7958,
      "떨어지는": 7959,
      "바람난": 7960,
      "바람이라도": 7961,
      "커피는": 7962,
      "커피가": 7963,
      "좋아하시는": 7964,
      "많았나봅니다": 7965,
      "성공한": 7966,
      "성공적으로": 7967,
      "기다리던": 7968,
      "핸드폰이": 7969,
      "살아있음": 7970,
      "엄마랑": 7971,
      "엄마아빠": 7972,
      "한번더": 7973,
      "한번쯤": 7974,
      "잊혀져": 7975,
      "잊혀질까": 7976,
      "가끔씩": 7977,
      "모두에게": 7978,
      "얼굴에": 7979,
      "예의일": 7980,
      "예뻐질": 7981,
      "재밌을": 7982,
      "재밌겠어요": 7983,
      "재밌는거": 7984,
      "소개팅하고": 7985,
      "소개팅으로": 7986,
      "떠나간": 7987,
      "마시지": 7988,
      "알바생": 7989,
      "무시해": 7990,
      "피곤했나봐요": 7991,
      "연락해봐요": 7992,
      "연락해보는": 7993,
      "도와달라고": 7994,
      "아픔도": 7995,
      "기다려도": 7996,
      "가족들": 7997,
      "가족한테": 7998,
      "가족들이랑": 7999,
      "극복해보세요": 8000,
      "모습도": 8001,
      "붙잡아": 8002,
      "##해줘서": 8003,
      "끝났습니다": 8004,
      "다녀도": 8005,
      "다녀왔어": 8006,
      "따뜻해졌": 8007,
      "설레는": 8008,
      "만난다면": 8009,
      "아이디": 8010,
      "다가가세요": 8011,
      "행동은": 8012,
      "익숙해져": 8013,
      "친구들을": 8014,
      "친구들한테": 8015,
      "놀러가세요": 8016,
      "도전은": 8017,
      "스타일이": 8018,
      "즐거울": 8019,
      "나오네": 8020,
      "전여자": 8021,
      "후련하네": 8022,
      "후련하니": 8023,
      "행복해보여": 8024,
      "다행이네요": 8025,
      "연인과": 8026,
      "용기내": 8027,
      "일어나면": 8028,
      "일어나세요": 8029,
      "잊지못": 8030,
      "자체만으로": 8031,
      "최고의": 8032,
      "헷갈리": 8033,
      "헷갈리네": 8034,
      "생각할게요": 8035,
      "생각할수록": 8036,
      "부족해": 8037,
      "비싸요": 8038,
      "소중합니다": 8039,
      "썸타고": 8040,
      "응원할게요": 8041,
      "이어질": 8042,
      "이어폰": 8043,
      "이어보고": 8044,
      "이어주는": 8045,
      "##여행이": 8046,
      "거짓말은": 8047,
      "거짓말을": 8048,
      "데려가세요": 8049,
      "미안하다": 8050,
      "싸우고": 8051,
      "필요해보여요": 8052,
      "부분을": 8053,
      "어렵다": 8054,
      "우산에": 8055,
      "월급은": 8056,
      "월급날": 8057,
      "바쁜일이": 8058,
      "비밀은": 8059,
      "비밀을": 8060,
      "비밀연애": 8061,
      "안해먹고": 8062,
      "앞에선": 8063,
      "종교의": 8064,
      "##하려면": 8065,
      "분위기를": 8066,
      "##기만해도": 8067,
      "재미있어": 8068,
      "재미있나봐요": 8069,
      "쇼핑하고": 8070,
      "시켜달라고": 8071,
      "어쩌면": 8072,
      "여러명": 8073,
      "이러는": 8074,
      "존중해": 8075,
      "존중하고": 8076,
      "존중해주세요": 8077,
      "취미네요": 8078,
      "칭찬이네요": 8079,
      "칭찬해주고": 8080,
      "해결될": 8081,
      "해결되길": 8082,
      "가야돼": 8083,
      "예민해": 8084,
      "하셨군요": 8085,
      "헤아릴": 8086,
      "괜찮을거": 8087,
      "짜증나네": 8088,
      "10개월": 8089,
      "기본으로": 8090,
      "기본이죠": 8091,
      "썸녀가": 8092,
      "썸녀한테": 8093,
      "취직하면": 8094,
      "커플링": 8095,
      "##해졌어요": 8096,
      "부담스러워할까": 8097,
      "귀여울": 8098,
      "불편한": 8099,
      "불편하겠죠": 8100,
      "사과할": 8101,
      "졸업하는데": 8102,
      "졸업식에": 8103,
      "위로해드리는": 8104,
      "선생님께": 8105,
      "고마움을": 8106,
      "병원가세요": 8107,
      "삭제해보세요": 8108,
      "삭제하는게": 8109,
      "위험한": 8110,
      "위험해": 8111,
      "이기니": 8112,
      "좋았던": 8113,
      "청소하세요": 8114,
      "키우는": 8115,
      "##시켜보세요": 8116,
      "감사하는": 8117,
      "나눠보는게": 8118,
      "놀이공원": 8119,
      "무너져요": 8120,
      "보냈네": 8121,
      "보냈습니다": 8122,
      "안타까": 8123,
      "어플로": 8124,
      "어플을": 8125,
      "동생한테": 8126,
      "발전이": 8127,
      "부탁드립니다": 8128,
      "생긴다는": 8129,
      "피부관리": 8130,
      "무섭나요": 8131,
      "버스가": 8132,
      "애매한": 8133,
      "없애주세요": 8134,
      "우연이": 8135,
      "이름이랑": 8136,
      "저녁에": 8137,
      "지쳐서": 8138,
      "피해만": 8139,
      "간절히": 8140,
      "간절하겠네요": 8141,
      "미래를": 8142,
      "불안해": 8143,
      "비교하면": 8144,
      "소화가": 8145,
      "쉬어가도": 8146,
      "안좋아": 8147,
      "오해가": 8148,
      "갑작스럽": 8149,
      "갑작스러운": 8150,
      "결과가": 8151,
      "깔끔해질": 8152,
      "대단하네요": 8153,
      "대단하시군요": 8154,
      "벗어나는": 8155,
      "슬퍼하고": 8156,
      "조급해지면": 8157,
      "집에서도": 8158,
      "##하셨어요": 8159,
      "##하셨겠어요": 8160,
      "걱정되겠어요": 8161,
      "견뎌내고": 8162,
      "기울여": 8163,
      "깨달음": 8164,
      "나올거": 8165,
      "남았네요": 8166,
      "멀어진": 8167,
      "멀어지면": 8168,
      "보일러": 8169,
      "보일러가": 8170,
      "야경이": 8171,
      "외로움을": 8172,
      "판단되면": 8173,
      "희망이": 8174,
      "희망은": 8175,
      "##기간을": 8176,
      "결정이었을거라": 8177,
      "받아들여야": 8178,
      "안타깝게": 8179,
      "나왔네": 8180,
      "더워서": 8181,
      "먹었더니": 8182,
      "멈추지": 8183,
      "멈추세요": 8184,
      "소문이": 8185,
      "스키장": 8186,
      "신고하고": 8187,
      "조절을": 8188,
      "클럽에서": 8189,
      "근처로": 8190,
      "남겨서": 8191,
      "모아야할": 8192,
      "산책을": 8193,
      "설렘이": 8194,
      "시기네요": 8195,
      "쓸데없는": 8196,
      "왜이렇게": 8197,
      "움직이세요": 8198,
      "잘생겼": 8199,
      "제자리걸음": 8200,
      "진실된": 8201,
      "최악의": 8202,
      "생각한대로": 8203,
      "하루하루가": 8204,
      "표현해보는": 8205,
      "상관없지만": 8206,
      "sns를": 8207,
      "과식하지": 8208,
      "교양수업": 8209,
      "기술이": 8210,
      "남아있": 8211,
      "넘어가네": 8212,
      "메뉴얼": 8213,
      "면도기": 8214,
      "목표네요": 8215,
      "보험처리": 8216,
      "빠르면": 8217,
      "아껴뒀나봐요": 8218,
      "아쉬운": 8219,
      "아쉬움이": 8220,
      "어찌해야": 8221,
      "외롭고": 8222,
      "용서하고": 8223,
      "이불밖은": 8224,
      "절약되겠네요": 8225,
      "지칠만": 8226,
      "헬스장에": 8227,
      "휴식도": 8228,
      "점심시간에": 8229,
      "놀랐나봐요": 8230,
      "놀랐겠어요": 8231,
      "반가워요": 8232,
      "생겨서": 8233,
      "술마시": 8234,
      "어머어머": 8235,
      "염색을": 8236,
      "유부녀": 8237,
      "이어나가는": 8238,
      "인내할": 8239,
      "콩깍지": 8240,
      "하다보니": 8241,
      "해보려고": 8242,
      "알아차리지": 8243,
      "알아차려도": 8244,
      "정신차리세요": 8245,
      "프로포즈해보세요": 8246,
      "구멍이": 8247,
      "기준이": 8248,
      "막히는": 8249,
      "메모하는": 8250,
      "모자라": 8251,
      "비정규직": 8252,
      "성별을": 8253,
      "수면양말": 8254,
      "시선을": 8255,
      "에너지가": 8256,
      "에너지를": 8257,
      "위해서예요": 8258,
      "잇몸약": 8259,
      "잘지내": 8260,
      "잘지내고": 8261,
      "잡아도": 8262,
      "지진시": 8263,
      "치료하세요": 8264,
      "파도가": 8265,
      "해봤는데": 8266,
      "##센터에": 8267,
      "간사하죠": 8268,
      "깨닫다니": 8269,
      "낭만적인": 8270,
      "들이대": 8271,
      "때로는": 8272,
      "뛰어넘": 8273,
      "마셨는데": 8274,
      "버티고": 8275,
      "불공평해": 8276,
      "세워보세요": 8277,
      "언니랑": 8278,
      "좋으시네요": 8279,
      "즐겁게": 8280,
      "호의를": 8281,
      "##시키는": 8282,
      "결혼적령기": 8283,
      "확인해달라고": 8284,
      "아름답죠": 8285,
      "지하철에": 8286,
      "1주일": 8287,
      "단호하게": 8288,
      "동감입니다": 8289,
      "들리려고": 8290,
      "따듯한": 8291,
      "로봇이에요": 8292,
      "망가뜨리기": 8293,
      "베풀고": 8294,
      "보름달": 8295,
      "소유하는": 8296,
      "소액결": 8297,
      "스테이크": 8298,
      "심어볼까": 8299,
      "알뜰폰": 8300,
      "애틋한": 8301,
      "어떠세요": 8302,
      "어둠에서": 8303,
      "인공지능에": 8304,
      "잠재력을": 8305,
      "찌질한": 8306,
      "초기화": 8307,
      "형편대로": 8308,
      "##조심하세요": 8309,
      "너무나도": 8310,
      "스타트업에": 8311,
      "두근거림을": 8312,
      "부딪혔나봐요": 8313,
      "애정표현일": 8314,
      "비행기표": 8315,
      "가볍게": 8316,
      "들려주세요": 8317,
      "무한리필": 8318,
      "무의식": 8319,
      "미용실": 8320,
      "비하하지는": 8321,
      "아팠으면": 8322,
      "어리석": 8323,
      "염탐하지": 8324,
      "예감은": 8325,
      "이모티콘": 8326,
      "지루해": 8327,
      "친해지는게": 8328,
      "컴퓨터가": 8329,
      "편의점": 8330,
      "포장하는게": 8331,
      "하우스웨딩": 8332,
      "한가지만": 8333,
      "한국도": 8334,
      "연락두절돼서": 8335,
      "적응해야겠네요": 8336,
      "금수저로": 8337,
      "당분간은": 8338,
      "지저분해요": 8339,
      "AS센터에": 8340,
      "각질제": 8341,
      "간직하세요": 8342,
      "개시해보세요": 8343,
      "그린라이트": 8344,
      "글쎄요": 8345,
      "꼬박꼬박": 8346,
      "꽃길만": 8347,
      "낳을뿐이에요": 8348,
      "놔둬야하는데": 8349,
      "눈높이가": 8350,
      "단체생활": 8351,
      "단맛도": 8352,
      "답정녀": 8353,
      "대피방법을": 8354,
      "동영상": 8355,
      "되짚어보세요": 8356,
      "뒷감당": 8357,
      "똑같애": 8358,
      "레시피": 8359,
      "만화같은": 8360,
      "망설여": 8361,
      "면역이": 8362,
      "무조건": 8363,
      "벅찰텐대요": 8364,
      "베트남": 8365,
      "뻑뻑해": 8366,
      "뿌린대로": 8367,
      "살쪄도": 8368,
      "새신발": 8369,
      "샌드위치": 8370,
      "아울렛": 8371,
      "애프터": 8372,
      "여쭤보세요": 8373,
      "영양제": 8374,
      "원인이죠": 8375,
      "원동력이": 8376,
      "이력서": 8377,
      "이왕이면": 8378,
      "인터넷": 8379,
      "인맥이": 8380,
      "장학금": 8381,
      "저마다의": 8382,
      "정정기간을": 8383,
      "지극히": 8384,
      "포맷해보세요": 8385,
      "한바퀴만": 8386,
      "합리적인": 8387,
      "호랑이보다": 8388,
      "해야겠네여": 8389,
      "챙겨드시거나": 8390,
      "정신건강에": 8391,
      "좋아하시는구나": 8392,
      "따뜻해졌죠": 8393,
      ".!": 8394,
      "11": 8395,
      "4번": 8396,
      "5일째": 8397,
      "6일째": 8398,
      "7개월": 8399,
      "ㅜㅜ": 8400,
      "가시": 8401,
      "가자": 8402,
      "가본": 8403,
      "가입": 8404,
      "가량": 8405,
      "가나봐요": 8406,
      "가리는": 8407,
      "가거나": 8408,
      "간질": 8409,
      "간섭": 8410,
      "갈궈": 8411,
      "갈등": 8412,
      "갔나": 8413,
      "갔는지": 8414,
      "갖자는": 8415,
      "같으면": 8416,
      "같다면": 8417,
      "거에": 8418,
      "거부": 8419,
      "거도": 8420,
      "거였": 8421,
      "거둬": 8422,
      "거꾸": 8423,
      "거니까요": 8424,
      "거라도": 8425,
      "거리가": 8426,
      "거두세요": 8427,
      "건데": 8428,
      "건가봐요": 8429,
      "걸요": 8430,
      "걸었어": 8431,
      "걸렸어": 8432,
      "겁나": 8433,
      "것에": 8434,
      "것일": 8435,
      "것일까": 8436,
      "것만으로": 8437,
      "겠지": 8438,
      "격식": 8439,
      "견과": 8440,
      "견적": 8441,
      "계약": 8442,
      "계신": 8443,
      "계산": 8444,
      "고집": 8445,
      "고르는": 8446,
      "곤두": 8447,
      "골랐": 8448,
      "공복": 8449,
      "공황": 8450,
      "공휴": 8451,
      "공감이": 8452,
      "관찰": 8453,
      "구박": 8454,
      "구매": 8455,
      "구썸": 8456,
      "구남친": 8457,
      "구체적으로": 8458,
      "굳이": 8459,
      "그지": 8460,
      "그나": 8461,
      "그도": 8462,
      "그의": 8463,
      "그쪽": 8464,
      "그림": 8465,
      "그에게": 8466,
      "근교": 8467,
      "기네": 8468,
      "기쁨": 8469,
      "기름": 8470,
      "기침": 8471,
      "길을": 8472,
      "길거리": 8473,
      "김에": 8474,
      "깊었나봐요": 8475,
      "까아": 8476,
      "깨진": 8477,
      "깨짐": 8478,
      "깨졌어": 8479,
      "꾸죠": 8480,
      "꾸미": 8481,
      "꿈꾸": 8482,
      "끊기": 8483,
      "끊는": 8484,
      "끊어": 8485,
      "끊는게": 8486,
      "끊어야": 8487,
      "끌지": 8488,
      "끝의": 8489,
      "끝인거": 8490,
      "끝일지도": 8491,
      "나게": 8492,
      "나란": 8493,
      "나빴": 8494,
      "나겠어요": 8495,
      "나들이": 8496,
      "나니까": 8497,
      "나가는": 8498,
      "나갈까": 8499,
      "난감": 8500,
      "날짜": 8501,
      "날이에요": 8502,
      "남녀": 8503,
      "남는게": 8504,
      "남기는": 8505,
      "났나봐": 8506,
      "낮술": 8507,
      "내년": 8508,
      "내딛": 8509,
      "내맘": 8510,
      "내리지": 8511,
      "내버려": 8512,
      "너랑": 8513,
      "너와": 8514,
      "너덜": 8515,
      "넋두": 8516,
      "넘게": 8517,
      "넘은": 8518,
      "넘넘": 8519,
      "노잼": 8520,
      "놀자": 8521,
      "놓지": 8522,
      "놓는": 8523,
      "놓치지": 8524,
      "놓치고": 8525,
      "누워": 8526,
      "누우면": 8527,
      "눈꺼": 8528,
      "느꼈": 8529,
      "늘어": 8530,
      "다독": 8531,
      "다갔어": 8532,
      "달리세요": 8533,
      "답을": 8534,
      "답장을": 8535,
      "당사": 8536,
      "대상": 8537,
      "대쉬": 8538,
      "대하는": 8539,
      "더이": 8540,
      "덥다": 8541,
      "데서": 8542,
      "데도": 8543,
      "데리러": 8544,
      "도저": 8545,
      "독하게": 8546,
      "돕는": 8547,
      "돼지": 8548,
      "돼서": 8549,
      "됐습니다": 8550,
      "되게": 8551,
      "되네요": 8552,
      "되겠죠": 8553,
      "되시길": 8554,
      "된다면": 8555,
      "될지": 8556,
      "두렵": 8557,
      "둘다": 8558,
      "뒤돌아": 8559,
      "뒷통수": 8560,
      "드려": 8561,
      "드레스": 8562,
      "듣는": 8563,
      "들게": 8564,
      "들어요": 8565,
      "들텐데": 8566,
      "들으며": 8567,
      "듯한": 8568,
      "따져": 8569,
      "따끔": 8570,
      "딱히": 8571,
      "딱이죠": 8572,
      "딴짓": 8573,
      "때인": 8574,
      "때마다": 8575,
      "때리기": 8576,
      "땡긴다": 8577,
      "떡볶": 8578,
      "떨고": 8579,
      "똑같이": 8580,
      "뜨는": 8581,
      "뜨끈": 8582,
      "라는": 8583,
      "리액": 8584,
      "마라": 8585,
      "만한": 8586,
      "많겠지": 8587,
      "많지만": 8588,
      "말자": 8589,
      "말과": 8590,
      "말하면": 8591,
      "말할까": 8592,
      "말이죠": 8593,
      "말하는게": 8594,
      "맘같지": 8595,
      "망한": 8596,
      "망상": 8597,
      "맞게": 8598,
      "맞이": 8599,
      "맞출": 8600,
      "맞나봐요": 8601,
      "매정": 8602,
      "매운": 8603,
      "매몰": 8604,
      "먹기": 8605,
      "먹나": 8606,
      "먹여": 8607,
      "먹기로": 8608,
      "멈출": 8609,
      "멋질": 8610,
      "메리": 8611,
      "멘탈": 8612,
      "모여": 8613,
      "모처럼": 8614,
      "목걸": 8615,
      "목욕": 8616,
      "몸과": 8617,
      "몸살": 8618,
      "몸에서": 8619,
      "못나": 8620,
      "못생": 8621,
      "못할까": 8622,
      "못하는데": 8623,
      "무지": 8624,
      "묻어두": 8625,
      "물질이": 8626,
      "뭐하는지": 8627,
      "뭘까요": 8628,
      "뭘하면": 8629,
      "미소": 8630,
      "미운": 8631,
      "믿는": 8632,
      "믿음": 8633,
      "믿었는데": 8634,
      "믿어주세요": 8635,
      "믿기지": 8636,
      "밑바": 8637,
      "바란": 8638,
      "바래": 8639,
      "바닥": 8640,
      "바나나": 8641,
      "반영": 8642,
      "반에서": 8643,
      "반대로": 8644,
      "반했나봐요": 8645,
      "받음": 8646,
      "받네": 8647,
      "발이": 8648,
      "발라": 8649,
      "밤만": 8650,
      "밤새": 8651,
      "밥은": 8652,
      "방식이": 8653,
      "방해가": 8654,
      "배가": 8655,
      "배정": 8656,
      "배불": 8657,
      "배터리": 8658,
      "백수": 8659,
      "뱃살": 8660,
      "버렸": 8661,
      "버림": 8662,
      "번만": 8663,
      "벌면": 8664,
      "벌레": 8665,
      "법을": 8666,
      "벗어": 8667,
      "벗겨": 8668,
      "베란": 8669,
      "베터리가": 8670,
      "벤츠": 8671,
      "변하고": 8672,
      "별의": 8673,
      "병행": 8674,
      "보자": 8675,
      "보약": 8676,
      "보수": 8677,
      "보임": 8678,
      "보는데": 8679,
      "보니까": 8680,
      "보이네": 8681,
      "보시면": 8682,
      "보인다": 8683,
      "볼때는": 8684,
      "봐보세요": 8685,
      "봐봐요": 8686,
      "봐주세요": 8687,
      "봤습니다": 8688,
      "부팅": 8689,
      "부케": 8690,
      "부리면": 8691,
      "부정적인": 8692,
      "분양": 8693,
      "분에게": 8694,
      "분인가봐요": 8695,
      "불순": 8696,
      "불쑥": 8697,
      "붙여": 8698,
      "블랙": 8699,
      "비해": 8700,
      "비트": 8701,
      "비만": 8702,
      "비혼": 8703,
      "비겁": 8704,
      "비친": 8705,
      "비와": 8706,
      "비용": 8707,
      "비오": 8708,
      "비쌈": 8709,
      "비오는": 8710,
      "빈자리": 8711,
      "빌릴까": 8712,
      "빼앗": 8713,
      "뻐근": 8714,
      "사로": 8715,
      "사무": 8716,
      "사계": 8717,
      "사겼어": 8718,
      "살았": 8719,
      "살죠": 8720,
      "살만": 8721,
      "살려": 8722,
      "살았는데": 8723,
      "살거야": 8724,
      "삶에": 8725,
      "삶은": 8726,
      "샀다": 8727,
      "샀는데": 8728,
      "상자를": 8729,
      "색다른": 8730,
      "서서": 8731,
      "서울": 8732,
      "서핑": 8733,
      "선의": 8734,
      "선배": 8735,
      "설마": 8736,
      "설계": 8737,
      "설렐": 8738,
      "성장을": 8739,
      "세탁": 8740,
      "속지": 8741,
      "속아": 8742,
      "손수": 8743,
      "손으로": 8744,
      "수천": 8745,
      "수제": 8746,
      "수십": 8747,
      "숙제": 8748,
      "숙취": 8749,
      "숫자": 8750,
      "쉬다": 8751,
      "쉬면서": 8752,
      "스쳐": 8753,
      "스릴": 8754,
      "스노": 8755,
      "스케": 8756,
      "슬플": 8757,
      "시급": 8758,
      "시끄러워": 8759,
      "식은": 8760,
      "식사": 8761,
      "식혀": 8762,
      "식욕": 8763,
      "식었어": 8764,
      "실용": 8765,
      "싫은데": 8766,
      "심난": 8767,
      "심남": 8768,
      "심쿵": 8769,
      "싶나봐요": 8770,
      "싶다면": 8771,
      "싶지만": 8772,
      "싸울": 8773,
      "쌓인": 8774,
      "썸으로": 8775,
      "썸일까": 8776,
      "썸인가요": 8777,
      "썸이었으면": 8778,
      "쏟아": 8779,
      "쓰면": 8780,
      "쓰이": 8781,
      "씁니다": 8782,
      "씨씨": 8783,
      "씹어": 8784,
      "아날": 8785,
      "아냐": 8786,
      "아려": 8787,
      "아래": 8788,
      "아놔": 8789,
      "아끼": 8790,
      "아니다": 8791,
      "안한": 8792,
      "안풀": 8793,
      "안오": 8794,
      "안하면": 8795,
      "안해줘": 8796,
      "안보여": 8797,
      "않기": 8798,
      "않으": 8799,
      "않습니다": 8800,
      "알긴": 8801,
      "애완": 8802,
      "야식": 8803,
      "야구": 8804,
      "약점": 8805,
      "약간의": 8806,
      "양을": 8807,
      "양치": 8808,
      "얘는": 8809,
      "어째": 8810,
      "어언": 8811,
      "어딘": 8812,
      "어이가": 8813,
      "억울": 8814,
      "얼떨": 8815,
      "없앨": 8816,
      "없습니다": 8817,
      "없다는": 8818,
      "없대요": 8819,
      "없으면서": 8820,
      "엉엉": 8821,
      "에이": 8822,
      "여지를": 8823,
      "엮여": 8824,
      "연하": 8825,
      "연상": 8826,
      "열받": 8827,
      "열까지": 8828,
      "영통": 8829,
      "영향을": 8830,
      "예고": 8831,
      "예정": 8832,
      "예쁠": 8833,
      "예측": 8834,
      "오죠": 8835,
      "오르네": 8836,
      "옥상": 8837,
      "온다고": 8838,
      "올게": 8839,
      "옷은": 8840,
      "와요": 8841,
      "왔나봅니다": 8842,
      "왜케": 8843,
      "요청": 8844,
      "욕을": 8845,
      "욜로": 8846,
      "용량": 8847,
      "우습": 8848,
      "웃게": 8849,
      "웃고": 8850,
      "웃으면": 8851,
      "웃는게": 8852,
      "원해": 8853,
      "원하지": 8854,
      "위축": 8855,
      "유통": 8856,
      "유료": 8857,
      "으으": 8858,
      "의존": 8859,
      "의심이": 8860,
      "의도는": 8861,
      "이래": 8862,
      "이대로": 8863,
      "이사람": 8864,
      "이김에": 8865,
      "인고": 8866,
      "일과": 8867,
      "일이라도": 8868,
      "일부로": 8869,
      "입니다": 8870,
      "입을까": 8871,
      "입장을": 8872,
      "있던": 8873,
      "있음을": 8874,
      "있도록": 8875,
      "잊자": 8876,
      "잊는게": 8877,
      "잊기가": 8878,
      "자다": 8879,
      "자요": 8880,
      "자제": 8881,
      "자동": 8882,
      "자극": 8883,
      "자리가": 8884,
      "자야겠다": 8885,
      "작아지": 8886,
      "잘한": 8887,
      "잘됐": 8888,
      "잘하게": 8889,
      "잘할까": 8890,
      "잘하니": 8891,
      "잘하셨어요": 8892,
      "잠식": 8893,
      "잡았어": 8894,
      "장점": 8895,
      "장점을": 8896,
      "재채": 8897,
      "재설": 8898,
      "저기": 8899,
      "저음": 8900,
      "저주": 8901,
      "저만": 8902,
      "저장": 8903,
      "저편": 8904,
      "적은": 8905,
      "적을": 8906,
      "적어도": 8907,
      "전할": 8908,
      "전으로": 8909,
      "전까지": 8910,
      "전에는": 8911,
      "전기가": 8912,
      "절망": 8913,
      "접은": 8914,
      "접촉": 8915,
      "정이": 8916,
      "정열": 8917,
      "정답": 8918,
      "정하고": 8919,
      "정성이": 8920,
      "정답을": 8921,
      "젖은": 8922,
      "제습": 8923,
      "조별": 8924,
      "졸라": 8925,
      "종종": 8926,
      "좋네": 8927,
      "좋다고": 8928,
      "좋더라": 8929,
      "좋겠습니다": 8930,
      "좋으니": 8931,
      "주인": 8932,
      "주길": 8933,
      "주체": 8934,
      "주려고": 8935,
      "죽겠어": 8936,
      "죽겠다": 8937,
      "죽어도": 8938,
      "줄도": 8939,
      "줄일": 8940,
      "줄임": 8941,
      "줄여": 8942,
      "중문": 8943,
      "줘야": 8944,
      "줬으면": 8945,
      "즐길": 8946,
      "지지": 8947,
      "지날": 8948,
      "지수": 8949,
      "지긋": 8950,
      "지워질": 8951,
      "직후": 8952,
      "직구": 8953,
      "진도": 8954,
      "진통": 8955,
      "질긴": 8956,
      "집까지": 8957,
      "쪼금": 8958,
      "찍었네": 8959,
      "찍어주세요": 8960,
      "찔려": 8961,
      "찬물": 8962,
      "참겠어": 8963,
      "찼어": 8964,
      "창피": 8965,
      "찾은": 8966,
      "척하는게": 8967,
      "천국": 8968,
      "첫이별": 8969,
      "초라": 8970,
      "총회": 8971,
      "추가": 8972,
      "춥고": 8973,
      "충실": 8974,
      "취소": 8975,
      "취해서": 8976,
      "치마": 8977,
      "친군": 8978,
      "카공": 8979,
      "컴터가": 8980,
      "크기": 8981,
      "크시겠어요": 8982,
      "타면": 8983,
      "탄다": 8984,
      "탓하지": 8985,
      "태그": 8986,
      "톡을": 8987,
      "통장": 8988,
      "투잡": 8989,
      "특히": 8990,
      "티나나": 8991,
      "판도": 8992,
      "팔아보세요": 8993,
      "페메": 8994,
      "편해": 8995,
      "편린": 8996,
      "편하다는": 8997,
      "평범": 8998,
      "표출": 8999,
      "풀리": 9000,
      "풀고": 9001,
      "풀어야": 9002,
      "피시": 9003,
      "피하고": 9004,
      "하니": 9005,
      "하필": 9006,
      "하객": 9007,
      "하겠죠": 9008,
      "하기로": 9009,
      "하려면": 9010,
      "하라는": 9011,
      "학기": 9012,
      "한데": 9013,
      "한결": 9014,
      "한눈": 9015,
      "한없이": 9016,
      "할게": 9017,
      "할인": 9018,
      "할말": 9019,
      "할게요": 9020,
      "할수록": 9021,
      "핫한": 9022,
      "해가": 9023,
      "해봐": 9024,
      "해달라고": 9025,
      "해줬으면": 9026,
      "해내고": 9027,
      "했을": 9028,
      "했네요": 9029,
      "했나봐": 9030,
      "했는지": 9031,
      "했더니": 9032,
      "허기": 9033,
      "허상": 9034,
      "허허": 9035,
      "헌신": 9036,
      "헛된": 9037,
      "헥헥": 9038,
      "현관": 9039,
      "호르": 9040,
      "호구": 9041,
      "혼나": 9042,
      "혼인": 9043,
      "혼내": 9044,
      "혼밥": 9045,
      "화해": 9046,
      "화난": 9047,
      "화나": 9048,
      "화학": 9049,
      "환경": 9050,
      "효도": 9051,
      "후배가": 9052,
      "훈훈": 9053,
      "휘둘": 9054,
      "휴유증": 9055,
      "흐지": 9056,
      "흐려": 9057,
      "흔적이": 9058,
      "흘리세요": 9059,
      "히스": 9060,
      "힘은": 9061,
      "힘겨": 9062,
      "##지게": 9063,
      "##지질": 9064,
      "##지마": 9065,
      "##지긋": 9066,
      "##지니까요": 9067,
      "##지나봐": 9068,
      "##한이": 9069,
      "##한대": 9070,
      "##한듯": 9071,
      "##한다고": 9072,
      "##기사": 9073,
      "##기네": 9074,
      "##기한이": 9075,
      "##는다": 9076,
      "##는다고": 9077,
      "##는지도": 9078,
      "##는다는": 9079,
      "##하겠어": 9080,
      "##하겠지만": 9081,
      "##하더라고요": 9082,
      "##게해": 9083,
      "##게되": 9084,
      "##거든": 9085,
      "##해보는": 9086,
      "##질때": 9087,
      "##난다면": 9088,
      "##난다고": 9089,
      "##부지": 9090,
      "##부르": 9091,
      "##히는": 9092,
      "##히네": 9093,
      "##시지": 9094,
      "##시에": 9095,
      "##시도": 9096,
      "##시나요": 9097,
      "##워시": 9098,
      "##워야": 9099,
      "##했다는": 9100,
      "##했나요": 9101,
      "##나가는": 9102,
      "##나오세요": 9103,
      "##니깐": 9104,
      "##다운": 9105,
      "##다는데": 9106,
      "##으라고": 9107,
      "##서요": 9108,
      "##달래": 9109,
      "##달라는": 9110,
      "##았어요": 9111,
      "##았다고": 9112,
      "##았더니": 9113,
      "##할래": 9114,
      "##할수": 9115,
      "##야돼": 9116,
      "##아파": 9117,
      "##가한": 9118,
      "##가기": 9119,
      "##가에": 9120,
      "##가나": 9121,
      "##가보다": 9122,
      "##가기도": 9123,
      "##로라": 9124,
      "##로션": 9125,
      "##자가": 9126,
      "##자마자": 9127,
      "##주의": 9128,
      "##트로": 9129,
      "##스레": 9130,
      "##번을": 9131,
      "##인줄": 9132,
      "##인트가": 9133,
      "##이로": 9134,
      "##이집": 9135,
      "##이진": 9136,
      "##이야기": 9137,
      "##이면서": 9138,
      "##이지요": 9139,
      "##보려": 9140,
      "##보낼": 9141,
      "##보이나": 9142,
      "##보려구": 9143,
      "##보셔요": 9144,
      "##은지": 9145,
      "##은거": 9146,
      "##르니까요": 9147,
      "##사는": 9148,
      "##사진": 9149,
      "##라워": 9150,
      "##라의": 9151,
      "##갔다": 9152,
      "##갔네요": 9153,
      "##문에": 9154,
      "##문득": 9155,
      "##준대": 9156,
      "##내길": 9157,
      "##일은": 9158,
      "##일수록": 9159,
      "##뿐이": 9160,
      "##적인데": 9161,
      "##있죠": 9162,
      "##있어요": 9163,
      "##있을까": 9164,
      "##때문에": 9165,
      "##날인데": 9166,
      "##간질": 9167,
      "##간대": 9168,
      "##풀의": 9169,
      "##풀이": 9170,
      "##마디": 9171,
      "##약이": 9172,
      "##치료": 9173,
      "##만남": 9174,
      "##만나고": 9175,
      "##들의": 9176,
      "##었지": 9177,
      "##었는": 9178,
      "##었나": 9179,
      "##었다면": 9180,
      "##었지만": 9181,
      "##었을까": 9182,
      "##었나요": 9183,
      "##방비": 9184,
      "##활용": 9185,
      "##같네요": 9186,
      "##겁니다": 9187,
      "##짓게": 9188,
      "##길래": 9189,
      "##려는": 9190,
      "##왔네요": 9191,
      "##당하는": 9192,
      "##당했어": 9193,
      "##학원": 9194,
      "##없어요": 9195,
      "##렸으면": 9196,
      "##타는": 9197,
      "##그런": 9198,
      "##그램": 9199,
      "##바구": 9200,
      "##즈를": 9201,
      "##쳐서": 9202,
      "##쳐올": 9203,
      "##와도": 9204,
      "##셨어": 9205,
      "##먹을": 9206,
      "##효도": 9207,
      "##된다": 9208,
      "##잔치": 9209,
      "##러운": 9210,
      "##신고": 9211,
      "##신청": 9212,
      "##임금": 9213,
      "##줘서": 9214,
      "##줘도": 9215,
      "##버림": 9216,
      "##버려요": 9217,
      "##버리네": 9218,
      "##더군": 9219,
      "##드리러": 9220,
      "##너덜": 9221,
      "##용품": 9222,
      "##오게": 9223,
      "##동거": 9224,
      "##동물": 9225,
      "##안나": 9226,
      "##안할": 9227,
      "##놓지": 9228,
      "##였을까": 9229,
      "##였는지": 9230,
      "##헤어": 9231,
      "##통이": 9232,
      "##생각이": 9233,
      "##근한": 9234,
      "##여도": 9235,
      "##여주세요": 9236,
      "##직이": 9237,
      "##됐네": 9238,
      "##탔어": 9239,
      "##1년": 9240,
      "##싶네": 9241,
      "##싶네요": 9242,
      "##받은": 9243,
      "##물주": 9244,
      "##른다": 9245,
      "##차게": 9246,
      "##키기": 9247,
      "##성에": 9248,
      "##성을": 9249,
      "##웠던": 9250,
      "##웠나봐요": 9251,
      "##탈까": 9252,
      "##싸움": 9253,
      "##망이지": 9254,
      "##잡는": 9255,
      "##토닥": 9256,
      "##점이": 9257,
      "##독하고": 9258,
      "##속에서": 9259,
      "##평가": 9260,
      "##플라워": 9261,
      "##따로": 9262,
      "##실에": 9263,
      "##실을": 9264,
      "##편이": 9265,
      "##연이": 9266,
      "##짼데": 9267,
      "##쳤다": 9268,
      "##선배": 9269,
      "##올까": 9270,
      "##폭발": 9271,
      "##발이": 9272,
      "##납니다": 9273,
      "##커플": 9274,
      "##좋아": 9275,
      "##코인": 9276,
      "##빛으로": 9277,
      "##혔어": 9278,
      "##맞나봅니다": 9279,
      "##베리": 9280,
      "##낭비": 9281,
      "사람만의": 9282,
      "사람일지도": 9283,
      "좋아져": 9284,
      "좋아진": 9285,
      "좋아졌어": 9286,
      "좋아했나봐요": 9287,
      "사랑만": 9288,
      "사랑하세요": 9289,
      "사랑하게": 9290,
      "사랑보다": 9291,
      "사랑했어": 9292,
      "사랑합니다": 9293,
      "사랑해주는": 9294,
      "사랑받는": 9295,
      "생각지": 9296,
      "생각지도": 9297,
      "생각했던": 9298,
      "생각처럼": 9299,
      "생각일까": 9300,
      "생각하면서": 9301,
      "생각없이": 9302,
      "##는데는": 9303,
      "마음껏": 9304,
      "마음이에요": 9305,
      "마음에게": 9306,
      "마음인지": 9307,
      "마음가는": 9308,
      "너무하네": 9309,
      "이별하": 9310,
      "이별중": 9311,
      "이별하면": 9312,
      "이별이에요": 9313,
      "이별하려고": 9314,
      "연락오네": 9315,
      "연락했습니다": 9316,
      "##하고싶은데": 9317,
      "여자인데": 9318,
      "힘들면": 9319,
      "힘들거라": 9320,
      "좋은지": 9321,
      "시간과": 9322,
      "시간이에요": 9323,
      "시간인데": 9324,
      "시간낭비": 9325,
      "사람이었나봐요": 9326,
      "친구사": 9327,
      "친구에게": 9328,
      "오늘로": 9329,
      "만나실": 9330,
      "만나기만": 9331,
      "만나자는": 9332,
      "자신만의": 9333,
      "이제부터": 9334,
      "좋을지도": 9335,
      "아니니": 9336,
      "아니겠지": 9337,
      "아니었어": 9338,
      "괜찮지": 9339,
      "괜찮습니다": 9340,
      "마음이네요": 9341,
      "연애도": 9342,
      "연애인": 9343,
      "연애할때": 9344,
      "연애상담": 9345,
      "필요도": 9346,
      "필요가": 9347,
      "필요했을": 9348,
      "모르겠다": 9349,
      "모르겠지만": 9350,
      "다른데": 9351,
      "짝남은": 9352,
      "짝남과": 9353,
      "헤어진지도": 9354,
      "없어졌으면": 9355,
      "당신만": 9356,
      "당신이네요": 9357,
      "다시는": 9358,
      "하는거": 9359,
      "결혼하": 9360,
      "결혼에": 9361,
      "결혼이나": 9362,
      "결혼한지": 9363,
      "정리에": 9364,
      "정리되": 9365,
      "정리하게": 9366,
      "정리하는데": 9367,
      "정리하길": 9368,
      "정리하려고": 9369,
      "정리했습니다": 9370,
      "정리되길": 9371,
      "중요하겠죠": 9372,
      "중요하니까요": 9373,
      "그런거": 9374,
      "행복이": 9375,
      "행복하면": 9376,
      "행복했으면": 9377,
      "조금이나": 9378,
      "고민을": 9379,
      "고민해보세요": 9380,
      "고민이네요": 9381,
      "짝사랑만": 9382,
      "짝사랑에서": 9383,
      "준비하는데": 9384,
      "준비되어야": 9385,
      "선물해": 9386,
      "선물해도": 9387,
      "찾아오네": 9388,
      "보고만": 9389,
      "보고파": 9390,
      "아무는": 9391,
      "아무일": 9392,
      "아무런": 9393,
      "고백한": 9394,
      "고백이": 9395,
      "고백해야": 9396,
      "고백했다": 9397,
      "고백받았어": 9398,
      "짝녀와": 9399,
      "그럴까요": 9400,
      "그럴수도": 9401,
      "후회없": 9402,
      "후회하면": 9403,
      "후회안할": 9404,
      "방법은": 9405,
      "방법이죠": 9406,
      "사귀다": 9407,
      "사귀긴": 9408,
      "사귀세요": 9409,
      "사귀는데": 9410,
      "사귀자고": 9411,
      "사귀자는": 9412,
      "이야기는": 9413,
      "이야기할": 9414,
      "이야기해요": 9415,
      "이야기하세요": 9416,
      "##해야하나": 9417,
      "헤어지네": 9418,
      "헤어지자는": 9419,
      "시작은": 9420,
      "시작을": 9421,
      "시작하는": 9422,
      "들어오면": 9423,
      "들어맞나봅니다": 9424,
      "해야겠죠": 9425,
      "해야하나": 9426,
      "일이니까요": 9427,
      "공부를": 9428,
      "공부하는": 9429,
      "공부할까": 9430,
      "공부하러": 9431,
      "감정도": 9432,
      "사랑이라고": 9433,
      "사랑이야기": 9434,
      "사랑이었나봐요": 9435,
      "사랑이었으니까요": 9436,
      "가능한": 9437,
      "만들면": 9438,
      "만들죠": 9439,
      "##보는것도": 9440,
      "이상의": 9441,
      "하루일": 9442,
      "##다는것": 9443,
      "하지요": 9444,
      "하지마": 9445,
      "걱정을": 9446,
      "걱정하면": 9447,
      "걱정마세요": 9448,
      "알아야": 9449,
      "알아가": 9450,
      "알아가는": 9451,
      "상대는": 9452,
      "상대에": 9453,
      "사랑하는지": 9454,
      "관심있": 9455,
      "기억만": 9456,
      "기억될": 9457,
      "힘들어도": 9458,
      "데이트는": 9459,
      "데이트할": 9460,
      "데이트하고": 9461,
      "언제부터": 9462,
      "여행지": 9463,
      "여행가고": 9464,
      "있었던": 9465,
      "있었어요": 9466,
      "있었나봅니다": 9467,
      "대화해보세요": 9468,
      "카톡할": 9469,
      "함께면": 9470,
      "##이었네요": 9471,
      "##이었는데": 9472,
      "오래갈": 9473,
      "누구냐": 9474,
      "누구한테": 9475,
      "누구보다": 9476,
      "표현하세요": 9477,
      "표현해주세요": 9478,
      "표현하기": 9479,
      "머리로": 9480,
      "이해는": 9481,
      "이해해요": 9482,
      "여친이랑": 9483,
      "전화는": 9484,
      "전화해도": 9485,
      "결정하는": 9486,
      "결정하기": 9487,
      "결정이었": 9488,
      "궁금하면": 9489,
      "궁금한게": 9490,
      "궁금증을": 9491,
      "운동은": 9492,
      "운동화": 9493,
      "어디가": 9494,
      "어디에서": 9495,
      "어디가지": 9496,
      "선택의": 9497,
      "선택으로": 9498,
      "아프기": 9499,
      "아프겠어요": 9500,
      "아프지만": 9501,
      "한달째": 9502,
      "한달반": 9503,
      "한달이에요": 9504,
      "한달만에": 9505,
      "돌아와": 9506,
      "돌아갈": 9507,
      "돌아가는": 9508,
      "부담스러울": 9509,
      "미련한": 9510,
      "미련만": 9511,
      "미련없이": 9512,
      "안되나": 9513,
      "안되나봐요": 9514,
      "안되겠죠": 9515,
      "노력해도": 9516,
      "보내세요": 9517,
      "보내보세요": 9518,
      "##해주지": 9519,
      "가고싶다": 9520,
      "그만두": 9521,
      "생각나네요": 9522,
      "때문이에요": 9523,
      "때문이겠죠": 9524,
      "인연에": 9525,
      "인연이죠": 9526,
      "인연이라면": 9527,
      "지나고": 9528,
      "지나가는": 9529,
      "그러지": 9530,
      "그러니까": 9531,
      "싶은게": 9532,
      "않았을": 9533,
      "않았네요": 9534,
      "않았다면": 9535,
      "재미없": 9536,
      "재미있는": 9537,
      "괜찮아지": 9538,
      "신경쓰인": 9539,
      "신경쓰이는": 9540,
      "인생이에요": 9541,
      "잘못은": 9542,
      "##해지고": 9543,
      "문제에": 9544,
      "문제인가요": 9545,
      "아파요": 9546,
      "아파하고": 9547,
      "아파하다가": 9548,
      "노래가": 9549,
      "처음이": 9550,
      "처음엔": 9551,
      "상황에": 9552,
      "상황일": 9553,
      "##하다니": 9554,
      "나이들": 9555,
      "달라질": 9556,
      "만났을": 9557,
      "축하해": 9558,
      "확실하게": 9559,
      "##스럽네": 9560,
      "결국은": 9561,
      "답답해서": 9562,
      "답답하다": 9563,
      "답답할거라": 9564,
      "챙겨주세요": 9565,
      "기대는": 9566,
      "기대했는데": 9567,
      "기대치가": 9568,
      "생각해봅니다": 9569,
      "세상이죠": 9570,
      "영화가": 9571,
      "영화를": 9572,
      "영화보고": 9573,
      "잊어버리는": 9574,
      "힘내요": 9575,
      "의미일까": 9576,
      "가져주세요": 9577,
      "가져가면": 9578,
      "가져왔다": 9579,
      "마지막이": 9580,
      "마지막을": 9581,
      "추천드려요": 9582,
      "확인하고": 9583,
      "말해야지": 9584,
      "말해보는": 9585,
      "아침마다": 9586,
      "정신과": 9587,
      "정신적": 9588,
      "정신병": 9589,
      "가슴은": 9590,
      "건강한": 9591,
      "관계는": 9592,
      "관계에": 9593,
      "관계도": 9594,
      "나쁜놈": 9595,
      "상대방은": 9596,
      "되었는지": 9597,
      "헤어짐도": 9598,
      "귀찮다": 9599,
      "귀찮은": 9600,
      "그리움이": 9601,
      "그리움을": 9602,
      "살고싶어": 9603,
      "재회했는데": 9604,
      "##사람은": 9605,
      "##사람에게": 9606,
      "남자애랑": 9607,
      "부모님께": 9608,
      "나가지": 9609,
      "떨어짐": 9610,
      "바람피": 9611,
      "바람둥": 9612,
      "아닐거예요": 9613,
      "헤어지고나서": 9614,
      "알려면": 9615,
      "사람들한테": 9616,
      "좋아하니까": 9617,
      "##하면서도": 9618,
      "기다리게": 9619,
      "살아서": 9620,
      "살아온": 9621,
      "살아가는": 9622,
      "살아야죠": 9623,
      "연습해": 9624,
      "연습하고": 9625,
      "인정받": 9626,
      "인정하는": 9627,
      "인정하세요": 9628,
      "주말인데": 9629,
      "주말이네요": 9630,
      "주말이네": 9631,
      "한번만": 9632,
      "이별이든": 9633,
      "잊혀진": 9634,
      "모두를": 9635,
      "복잡할": 9636,
      "복잡하게": 9637,
      "복잡한가봐요": 9638,
      "스스로를": 9639,
      "얼굴보고": 9640,
      "예의를": 9641,
      "##적이면": 9642,
      "좋아할까요": 9643,
      "필요한가요": 9644,
      "날씨도": 9645,
      "남편이네요": 9646,
      "상관없이": 9647,
      "지내요": 9648,
      "마시기": 9649,
      "보는건": 9650,
      "무시당하는": 9651,
      "짜증남": 9652,
      "피곤해서": 9653,
      "피곤하겠어요": 9654,
      "##다니는": 9655,
      "도와드": 9656,
      "도와드릴게요": 9657,
      "별로임": 9658,
      "별로네요": 9659,
      "정도에": 9660,
      "기다려야": 9661,
      "받아들이세요": 9662,
      "만들어봐요": 9663,
      "끝나면": 9664,
      "끝나도": 9665,
      "모습으로": 9666,
      "붙잡는": 9667,
      "솔직하고": 9668,
      "지켜주세요": 9669,
      "차단도": 9670,
      "차단하고": 9671,
      "차단하세요": 9672,
      "학교에": 9673,
      "사랑에도": 9674,
      "것이든": 9675,
      "그분에": 9676,
      "그분도": 9677,
      "그분에게": 9678,
      "마주쳤": 9679,
      "설레고": 9680,
      "내려놓고": 9681,
      "두려운": 9682,
      "아이고": 9683,
      "직장인": 9684,
      "힘이드네": 9685,
      "다가가도": 9686,
      "놓아줄": 9687,
      "배우세요": 9688,
      "주변의": 9689,
      "첫사랑을": 9690,
      "행동할": 9691,
      "힘들었을텐데": 9692,
      "되어가네": 9693,
      "되어가길": 9694,
      "성격도": 9695,
      "친구들은": 9696,
      "!!!": 9697,
      "2년의": 9698,
      "2년째": 9699,
      "도전이": 9700,
      "도전해보세요": 9701,
      "바라는게": 9702,
      "지났어요": 9703,
      "지났는데": 9704,
      "집착하게": 9705,
      "나아지길": 9706,
      "나오고": 9707,
      "나오세요": 9708,
      "나오라고": 9709,
      "느껴보세요": 9710,
      "오랜연애": 9711,
      "이겨내고": 9712,
      "자존심": 9713,
      "자존심을": 9714,
      "말이예요": 9715,
      "알게되": 9716,
      "여유롭게": 9717,
      "연인이": 9718,
      "우울한": 9719,
      "우울증": 9720,
      "일어나야": 9721,
      "자체를": 9722,
      "헷갈려": 9723,
      "이상형을": 9724,
      "꿈에나": 9725,
      "부족한가봐요": 9726,
      "부족한가": 9727,
      "거짓말이": 9728,
      "다를거예요": 9729,
      "미안하대": 9730,
      "생일선물": 9731,
      "죽을거": 9732,
      "##버렸습니다": 9733,
      "어렵지": 9734,
      "우산을": 9735,
      "월급을": 9736,
      "진정하세요": 9737,
      "##이라면요": 9738,
      "전여친한테": 9739,
      "전여친이랑": 9740,
      "드는걸로": 9741,
      "방학에": 9742,
      "방학은": 9743,
      "종교를": 9744,
      "하늘이": 9745,
      "흘렀나봐요": 9746,
      "##하시겠어요": 9747,
      "좋아하는데도": 9748,
      "연락해도될까": 9749,
      "마셔요": 9750,
      "마셔보세요": 9751,
      "분위기가": 9752,
      "이번달": 9753,
      "이번엔": 9754,
      "장난인지": 9755,
      "장난스러운": 9756,
      "허전할": 9757,
      "허전한가봐요": 9758,
      "허전하겠어요": 9759,
      "당연해요": 9760,
      "바보같이": 9761,
      "쇼핑몰": 9762,
      "어울릴까": 9763,
      "이러다": 9764,
      "이러면": 9765,
      "존중합니다": 9766,
      "칭찬해보세요": 9767,
      "받아들여보세요": 9768,
      "상처받게": 9769,
      "당당히": 9770,
      "예쁜데": 9771,
      "조언이": 9772,
      "지쳤어": 9773,
      "차분하고": 9774,
      "하셨나봐요": 9775,
      "##해져도": 9776,
      "사랑해줄": 9777,
      "10일째": 9778,
      "5년간": 9779,
      "5년연애": 9780,
      "???": 9781,
      "까먹었어": 9782,
      "서운하겠어요": 9783,
      "서운하다고": 9784,
      "슬프다": 9785,
      "썸녀랑": 9786,
      "취직할": 9787,
      "취직이나": 9788,
      "해주면": 9789,
      "해주는게": 9790,
      "해주면서": 9791,
      "##해졌나봐요": 9792,
      "귀여운": 9793,
      "떨려서": 9794,
      "배워도": 9795,
      "배워볼까": 9796,
      "배워가는": 9797,
      "배워보고": 9798,
      "일주일이": 9799,
      "자유를": 9800,
      "적응이": 9801,
      "최선이었을": 9802,
      "이상한가": 9803,
      "가치가": 9804,
      "고마워요": 9805,
      "그사람이": 9806,
      "나온다": 9807,
      "대학원": 9808,
      "몰랐어": 9809,
      "몰랐어요": 9810,
      "배려해보세요": 9811,
      "배려해야": 9812,
      "삭제하는": 9813,
      "생기길": 9814,
      "어색한": 9815,
      "어색해": 9816,
      "적극적인": 9817,
      "좋았을텐데": 9818,
      "질투가": 9819,
      "질투를": 9820,
      "질투난다고": 9821,
      "청소는": 9822,
      "청소를": 9823,
      "##한거니": 9824,
      "##한다는데": 9825,
      "스타일에": 9826,
      "3개월째": 9827,
      "3개월만에": 9828,
      "담배를": 9829,
      "당황하셨겠어요": 9830,
      "무뎌질": 9831,
      "무뎌지는": 9832,
      "무너진": 9833,
      "무너졌어": 9834,
      "버려야": 9835,
      "버려야지": 9836,
      "보냈으니": 9837,
      "본인이": 9838,
      "얘기해": 9839,
      "얘기하지": 9840,
      "착각이": 9841,
      "##인거죠": 9842,
      "좋아한대": 9843,
      "연예인도": 9844,
      "귀엽죠": 9845,
      "귀엽겠네요": 9846,
      "기운이": 9847,
      "나타나": 9848,
      "동생이": 9849,
      "동생인데": 9850,
      "동생이랑": 9851,
      "바꿔야": 9852,
      "바꿔야지": 9853,
      "바꿔볼까": 9854,
      "사실에": 9855,
      "이사하는": 9856,
      "인사드리러": 9857,
      "일상으로": 9858,
      "차이인": 9859,
      "##질까봐": 9860,
      "돌아오지": 9861,
      "돌아오는": 9862,
      "돌아오길": 9863,
      "괴롭다": 9864,
      "다니는": 9865,
      "면접만": 9866,
      "무섭다": 9867,
      "무섭네": 9868,
      "바뀌어": 9869,
      "상사병": 9870,
      "의지해보세요": 9871,
      "의지해도": 9872,
      "이용하는": 9873,
      "지쳐요": 9874,
      "친구로서": 9875,
      "SNS에": 9876,
      "4년을": 9877,
      "가벼워질": 9878,
      "간절한": 9879,
      "견디기": 9880,
      "고치기": 9881,
      "누군가": 9882,
      "반복되는": 9883,
      "사라진": 9884,
      "쉬어가는": 9885,
      "쉬어가세요": 9886,
      "영원히": 9887,
      "이혼을": 9888,
      "마주치지": 9889,
      "마주치면": 9890,
      "일주일이네": 9891,
      "가까워질": 9892,
      "갑작스러": 9893,
      "개인의": 9894,
      "느려졌어": 9895,
      "대단한": 9896,
      "멋있네요": 9897,
      "비슷하죠": 9898,
      "역시나": 9899,
      "조급해": 9900,
      "조급하게": 9901,
      "차별이": 9902,
      "가능할까요": 9903,
      "3주째": 9904,
      "견뎌봐요": 9905,
      "기울여보세요": 9906,
      "깨달음이": 9907,
      "남사친이랑": 9908,
      "몰라서": 9909,
      "문득문득": 9910,
      "분명히": 9911,
      "분명하게": 9912,
      "상태인": 9913,
      "실망하지": 9914,
      "어장인거": 9915,
      "여기까지였을": 9916,
      "여사친이랑": 9917,
      "외로움": 9918,
      "원망은": 9919,
      "이럴까": 9920,
      "전부는": 9921,
      "정확히": 9922,
      "중간에": 9923,
      "##방법이": 9924,
      "##남자친구": 9925,
      "무덤덤해질": 9926,
      "무덤덤해지는": 9927,
      "그것이": 9928,
      "그것만큼": 9929,
      "다양한": 9930,
      "두고두고": 9931,
      "말투는": 9932,
      "반대래요": 9933,
      "시어머니": 9934,
      "어린이집": 9935,
      "울적한": 9936,
      "울적해": 9937,
      "진급할": 9938,
      "채워보세요": 9939,
      "채워줄게요": 9940,
      "클럽을": 9941,
      "통보하는": 9942,
      "##스타일": 9943,
      "생각하나봐요": 9944,
      "미안해하지": 9945,
      "가치관에": 9946,
      "달달할": 9947,
      "바꾸는": 9948,
      "바꾸세요": 9949,
      "변덕이": 9950,
      "변덕스럽게": 9951,
      "신청해보세요": 9952,
      "여기서": 9953,
      "예쁘다": 9954,
      "왜이리": 9955,
      "외국어": 9956,
      "잘생겨": 9957,
      "제자리여도": 9958,
      "페북을": 9959,
      "물어보거나": 9960,
      "냉장고에": 9961,
      "겨울에는": 9962,
      "고맙다고": 9963,
      "나에게도": 9964,
      "다되가네": 9965,
      "다되어가네": 9966,
      "떨리겠어요": 9967,
      "말아야": 9968,
      "맛난거": 9969,
      "물리적인": 9970,
      "받았던": 9971,
      "빠르게": 9972,
      "소비를": 9973,
      "심심한데": 9974,
      "아껴주세요": 9975,
      "오지랖": 9976,
      "외롭다고": 9977,
      "이뤄지지": 9978,
      "인기있는": 9979,
      "중독인가봐": 9980,
      "편안하게": 9981,
      "편안해질": 9982,
      "향수가": 9983,
      "헬스장에서": 9984,
      "드라이플라워": 9985,
      "배고파서": 9986,
      "~~~": 9987,
      "감성적이": 9988,
      "개강이라니": 9989,
      "경쟁이": 9990,
      "그대의": 9991,
      "깨끗이": 9992,
      "남기고": 9993,
      "내리는게": 9994,
      "노후는": 9995,
      "멋지네요": 9996,
      "무거운": 9997,
      "잘되고": 9998,
      "잘되니까": 9999,
      "지치네": 10000,
      "복잡한가요": 10001,
      "도와줘야": 10002,
      "익숙해지지": 10003,
      "익숙해지지가": 10004,
      "일어났더니": 10005,
      "간단하게": 10006,
      "길러보세요": 10007,
      "길러볼까": 10008,
      "다정한": 10009,
      "다닐까": 10010,
      "똑똑해": 10011,
      "비정상": 10012,
      "시키세요": 10013,
      "심리일까요": 10014,
      "애교가": 10015,
      "여우같은": 10016,
      "웬수예요": 10017,
      "웬수네요": 10018,
      "의심하지": 10019,
      "하시고": 10020,
      "허무하네": 10021,
      "헛헛한가봐요": 10022,
      "사랑하나봅니다": 10023,
      "고백할까요": 10024,
      "돌아올까": 10025,
      "영화관이나": 10026,
      "의미부여는": 10027,
      "그리운가봐요": 10028,
      "##더라구요": 10029,
      "머릿속이": 10030,
      "15년": 10031,
      "기도할게요": 10032,
      "대리효도": 10033,
      "든든할": 10034,
      "못했군요": 10035,
      "빠져나오세요": 10036,
      "상의해보세요": 10037,
      "유학을": 10038,
      "축복과": 10039,
      "포근한": 10040,
      "풀렸길": 10041,
      "흘러갈": 10042,
      "결혼적령기가": 10043,
      "영화보러": 10044,
      "배우자가": 10045,
      "태어났을까": 10046,
      "봉사활동도": 10047,
      "새출발하세요": 10048,
      "유효기간이": 10049,
      "가늠하지": 10050,
      "나누는게": 10051,
      "느낀다면": 10052,
      "단순한": 10053,
      "모으는": 10054,
      "무릎에": 10055,
      "뭐하냐": 10056,
      "뭐하냐고": 10057,
      "바디워시": 10058,
      "바디로션": 10059,
      "변해가는": 10060,
      "불타올": 10061,
      "이벤트": 10062,
      "잘해주면": 10063,
      "접어두셔요": 10064,
      "조용히": 10065,
      "주름살": 10066,
      "중고로": 10067,
      "중2병": 10068,
      "진지하게": 10069,
      "차례예요": 10070,
      "책임질": 10071,
      "추운가요": 10072,
      "혼란스러워": 10073,
      "희생양이": 10074,
      "퇴근길에": 10075,
      "지겨워진": 10076,
      "첫인상은": 10077,
      "화이트데이에": 10078,
      "가스비": 10079,
      "가라앉": 10080,
      "끝일줄": 10081,
      "나약한": 10082,
      "단톡방": 10083,
      "떨쳐버리세요": 10084,
      "먹으러": 10085,
      "미화되기": 10086,
      "반갑습니다": 10087,
      "세월이": 10088,
      "소모가": 10089,
      "시골에서": 10090,
      "식단조절": 10091,
      "올랐어": 10092,
      "와닿지": 10093,
      "잘자요": 10094,
      "쟁취하는": 10095,
      "제안해보세요": 10096,
      "착잡하겠어요": 10097,
      "한켠에": 10098,
      "마음정리하세요": 10099,
      "아무말도": 10100,
      "다가오고": 10101,
      "이어나가는게": 10102,
      "달려있겠죠": 10103,
      "뒤숭숭하네": 10104,
      "객관적으로": 10105,
      "고독한": 10106,
      "깎아야지": 10107,
      "무모한": 10108,
      "물가가": 10109,
      "바꿨어": 10110,
      "보듬어": 10111,
      "불가능": 10112,
      "브랜드가": 10113,
      "설득해보세요": 10114,
      "소름돋": 10115,
      "속박에서": 10116,
      "손가락이": 10117,
      "알겠어서": 10118,
      "예상하지": 10119,
      "이끌어": 10120,
      "일요일에": 10121,
      "잔소리": 10122,
      "잡념을": 10123,
      "제정신이": 10124,
      "종지부를": 10125,
      "최저임금": 10126,
      "친척들": 10127,
      "토닥토닥": 10128,
      "확률이": 10129,
      "훔쳐보는": 10130,
      "##질뻔했어": 10131,
      "신경쓰이나봐요": 10132,
      "습관처럼은": 10133,
      "떨어뜨려서": 10134,
      "알바생이": 10135,
      "가족들과": 10136,
      "존중해줬으면": 10137,
      "안좋아하는": 10138,
      "결혼적령기예요": 10139,
      "그린라이트일까": 10140,
      "애프터까지": 10141,
      "가량의": 10142,
      "간질간질": 10143,
      "거꾸로": 10144,
      "것만으로도": 10145,
      "견과류": 10146,
      "계산적인": 10147,
      "공휴일": 10148,
      "구썸남": 10149,
      "너덜너덜": 10150,
      "넋두리": 10151,
      "다독여주세요": 10152,
      "당사자": 10153,
      "더이상": 10154,
      "도저히": 10155,
      "따져보세요": 10156,
      "따끔하게": 10157,
      "떡볶이": 10158,
      "리액션": 10159,
      "멘탈이": 10160,
      "목걸이": 10161,
      "목욕탕": 10162,
      "미소짓게": 10163,
      "밑바닥": 10164,
      "바란다면": 10165,
      "배불러": 10166,
      "베란다": 10167,
      "별의별": 10168,
      "비트코인": 10169,
      "비혼주의": 10170,
      "비겁한": 10171,
      "비오는날": 10172,
      "사계절": 10173,
      "서서히": 10174,
      "선의의": 10175,
      "손수건": 10176,
      "수천번": 10177,
      "실용적인": 10178,
      "아날로그": 10179,
      "안오지": 10180,
      "애완동물": 10181,
      "얼떨떨": 10182,
      "유통기한이": 10183,
      "인고의": 10184,
      "자동차": 10185,
      "자극이": 10186,
      "재채기": 10187,
      "재설계": 10188,
      "접촉하는": 10189,
      "정답이": 10190,
      "주인공": 10191,
      "줄임말": 10192,
      "지긋지긋": 10193,
      "진통제": 10194,
      "창피해": 10195,
      "크기만큼": 10196,
      "판도라의": 10197,
      "피시방": 10198,
      "허상일": 10199,
      "호르몬": 10200,
      "혼인신고": 10201,
      "흐지부지": 10202,
      "히스테리": 10203,
      "##게되네": 10204,
      "##사진을": 10205,
      "조금이나마": 10206,
      "지긋지긋한": 10207,
      "..": 10208,
      "0칼로리": 10209,
      "1지": 10210,
      "1도": 10211,
      "1은": 10212,
      "1호": 10213,
      "14": 10214,
      "1순위": 10215,
      "1달째": 10216,
      "2번": 10217,
      "3박": 10218,
      "3달째": 10219,
      "4일": 10220,
      "40": 10221,
      "5달": 10222,
      "5월": 10223,
      "6일": 10224,
      "8개월": 10225,
      "9개월": 10226,
      "9일째": 10227,
      ";;": 10228,
      "?.": 10229,
      "A형": 10230,
      "AB": 10231,
      "B형": 10232,
      "CC": 10233,
      "O형": 10234,
      "SD": 10235,
      "….": 10236,
      "가봐": 10237,
      "가르": 10238,
      "가네": 10239,
      "가죠": 10240,
      "가방": 10241,
      "가습": 10242,
      "가출": 10243,
      "가수": 10244,
      "가며": 10245,
      "가망": 10246,
      "가재": 10247,
      "가혹": 10248,
      "가라고": 10249,
      "가니까요": 10250,
      "가볼까": 10251,
      "가보는": 10252,
      "가야죠": 10253,
      "가야겠다": 10254,
      "가리면": 10255,
      "가봅시다": 10256,
      "가봤어": 10257,
      "가운데": 10258,
      "간지": 10259,
      "간에": 10260,
      "간다면": 10261,
      "간다고": 10262,
      "갈구": 10263,
      "갈렸나봐요": 10264,
      "갈만한": 10265,
      "감이": 10266,
      "감추": 10267,
      "감미": 10268,
      "갑시다": 10269,
      "값이죠": 10270,
      "강박": 10271,
      "강추": 10272,
      "강림": 10273,
      "갖는": 10274,
      "같죠": 10275,
      "같을까": 10276,
      "같기도": 10277,
      "같음을": 10278,
      "갚고": 10279,
      "갚을": 10280,
      "개기": 10281,
      "개야": 10282,
      "개당": 10283,
      "개째": 10284,
      "갱신": 10285,
      "걔도": 10286,
      "걔랑": 10287,
      "거리": 10288,
      "거래": 10289,
      "거릴": 10290,
      "거창": 10291,
      "거슬": 10292,
      "건네": 10293,
      "건방": 10294,
      "건들이": 10295,
      "건데요": 10296,
      "걷기": 10297,
      "걷다보면": 10298,
      "걸지": 10299,
      "걸음": 10300,
      "걸렸": 10301,
      "걸어도": 10302,
      "걸으세요": 10303,
      "걸려요": 10304,
      "겁이": 10305,
      "겁이나": 10306,
      "것과": 10307,
      "것부터": 10308,
      "것같아": 10309,
      "것이라면": 10310,
      "겉모습": 10311,
      "게스트": 10312,
      "겠죠": 10313,
      "겠네요": 10314,
      "겠지요": 10315,
      "겪은": 10316,
      "견딜": 10317,
      "결단": 10318,
      "결재": 10319,
      "결심이": 10320,
      "경과": 10321,
      "경조": 10322,
      "경향": 10323,
      "경찰": 10324,
      "계단": 10325,
      "계기를": 10326,
      "고시": 10327,
      "고데": 10328,
      "고비": 10329,
      "고구": 10330,
      "고와": 10331,
      "고작": 10332,
      "고파": 10333,
      "고3": 10334,
      "고장이": 10335,
      "고르세요": 10336,
      "고가의": 10337,
      "골인": 10338,
      "골반": 10339,
      "곱씹": 10340,
      "곱창": 10341,
      "곱다고": 10342,
      "곳과": 10343,
      "곳인가봐요": 10344,
      "곳이라면요": 10345,
      "공기": 10346,
      "공급": 10347,
      "공채": 10348,
      "공동": 10349,
      "공원": 10350,
      "공연": 10351,
      "공적인": 10352,
      "공감을": 10353,
      "과에": 10354,
      "과함": 10355,
      "과제": 10356,
      "과외": 10357,
      "과에서": 10358,
      "과해도": 10359,
      "관절": 10360,
      "관리가": 10361,
      "광합": 10362,
      "광탈": 10363,
      "광고가": 10364,
      "괘씸": 10365,
      "괴물": 10366,
      "괴로운": 10367,
      "교통": 10368,
      "교환": 10369,
      "교복이": 10370,
      "교직이": 10371,
      "구질": 10372,
      "구걸": 10373,
      "구꺼": 10374,
      "구상": 10375,
      "구경": 10376,
      "구릿": 10377,
      "구하세요": 10378,
      "구해야": 10379,
      "구하셨": 10380,
      "구분이": 10381,
      "구여친": 10382,
      "국경": 10383,
      "굴면": 10384,
      "권리": 10385,
      "권유": 10386,
      "귀차": 10387,
      "귀찬": 10388,
      "균형이": 10389,
      "그후": 10390,
      "그놈": 10391,
      "그곳": 10392,
      "그때는": 10393,
      "극혐": 10394,
      "근질": 10395,
      "근무": 10396,
      "근황": 10397,
      "금사": 10398,
      "금물": 10399,
      "금값": 10400,
      "급해": 10401,
      "급하게": 10402,
      "기한": 10403,
      "기부": 10404,
      "기나": 10405,
      "기어": 10406,
      "기관": 10407,
      "기적": 10408,
      "기쁜": 10409,
      "기우": 10410,
      "기계": 10411,
      "기차": 10412,
      "기초": 10413,
      "기뻐": 10414,
      "기획": 10415,
      "기특": 10416,
      "기니까요": 10417,
      "기대로": 10418,
      "기적이죠": 10419,
      "긴여": 10420,
      "길에": 10421,
      "깊어": 10422,
      "깊이": 10423,
      "깊었을": 10424,
      "까봐": 10425,
      "깍고": 10426,
      "깎인": 10427,
      "깎아요": 10428,
      "깐깐": 10429,
      "깜깜": 10430,
      "깨는": 10431,
      "깨질": 10432,
      "깨서": 10433,
      "깨지고": 10434,
      "깨졌는데": 10435,
      "깨어진": 10436,
      "꺼지기": 10437,
      "꼈어": 10438,
      "꼬까": 10439,
      "꼬르": 10440,
      "꼬리가": 10441,
      "꼬시지": 10442,
      "꼬였는지": 10443,
      "꽃게": 10444,
      "꽃을": 10445,
      "꽃꽂": 10446,
      "꽃으로": 10447,
      "꽃바구": 10448,
      "꾸고": 10449,
      "꾸는데": 10450,
      "꿀꿀": 10451,
      "꿈도": 10452,
      "꿈이었": 10453,
      "꿈처럼": 10454,
      "꿈같은": 10455,
      "꿨는데": 10456,
      "꿨는지": 10457,
      "꿰메": 10458,
      "끄고": 10459,
      "끄세요": 10460,
      "끊긴": 10461,
      "끊겼": 10462,
      "끊으세요": 10463,
      "끊었으면": 10464,
      "끊겼는데": 10465,
      "끊으라고": 10466,
      "끓이는": 10467,
      "끝인가봐요": 10468,
      "끝이네": 10469,
      "끝인가봐": 10470,
      "끼세요": 10471,
      "낌새가": 10472,
      "나에": 10473,
      "나로": 10474,
      "나라": 10475,
      "나감": 10476,
      "나길": 10477,
      "나쁨": 10478,
      "나름": 10479,
      "나갈": 10480,
      "나옴": 10481,
      "나눴": 10482,
      "나네요": 10483,
      "나아요": 10484,
      "나대로": 10485,
      "나으세요": 10486,
      "나가요": 10487,
      "나쁘게": 10488,
      "낙담": 10489,
      "낙엽": 10490,
      "낙이죠": 10491,
      "난다": 10492,
      "난처": 10493,
      "날도": 10494,
      "날까": 10495,
      "날인": 10496,
      "날은": 10497,
      "날들": 10498,
      "날려": 10499,
      "날카": 10500,
      "날들이": 10501,
      "날거예요": 10502,
      "날까지": 10503,
      "날인가": 10504,
      "날이야": 10505,
      "날이네": 10506,
      "날이었나봅니다": 10507,
      "날에만": 10508,
      "남주": 10509,
      "남잔": 10510,
      "남동": 10511,
      "남나봐요": 10512,
      "남겠죠": 10513,
      "남보다": 10514,
      "남이죠": 10515,
      "남았어": 10516,
      "남이라는": 10517,
      "납니다": 10518,
      "낫지": 10519,
      "낫다": 10520,
      "낫고": 10521,
      "낫네": 10522,
      "낫겠네요": 10523,
      "났어": 10524,
      "났네": 10525,
      "났으면": 10526,
      "났나봐요": 10527,
      "났는지": 10528,
      "낭만이": 10529,
      "낮춰": 10530,
      "내도": 10531,
      "내길": 10532,
      "내장": 10533,
      "내릴": 10534,
      "내키": 10535,
      "내봐요": 10536,
      "내거나": 10537,
      "내려요": 10538,
      "내리기": 10539,
      "내릴까": 10540,
      "내렸나봐요": 10541,
      "내냐구": 10542,
      "냈어": 10543,
      "냉동": 10544,
[...]
